<unk>	0
<s>	0
</s>	0
<pad>	0
<start_user>	0
<end_user>	0
<start_agent>	0
<end_agent>	0
<start_img>	0
<end_img>	0
<special_token_0>	0
<special_token_1>	0
<special_token_2>	0
<special_token_3>	0
<special_token_4>	0
<special_token_5>	0
<special_token_6>	0
<special_token_7>	0
<0x00>	0
<0x01>	0
<0x02>	0
<0x03>	0
<0x04>	0
<0x05>	0
<0x06>	0
<0x07>	0
<0x08>	0
<0x09>	0
<0x0A>	0
<0x0B>	0
<0x0C>	0
<0x0D>	0
<0x0E>	0
<0x0F>	0
<0x10>	0
<0x11>	0
<0x12>	0
<0x13>	0
<0x14>	0
<0x15>	0
<0x16>	0
<0x17>	0
<0x18>	0
<0x19>	0
<0x1A>	0
<0x1B>	0
<0x1C>	0
<0x1D>	0
<0x1E>	0
<0x1F>	0
<0x20>	0
<0x21>	0
<0x22>	0
<0x23>	0
<0x24>	0
<0x25>	0
<0x26>	0
<0x27>	0
<0x28>	0
<0x29>	0
<0x2A>	0
<0x2B>	0
<0x2C>	0
<0x2D>	0
<0x2E>	0
<0x2F>	0
<0x30>	0
<0x31>	0
<0x32>	0
<0x33>	0
<0x34>	0
<0x35>	0
<0x36>	0
<0x37>	0
<0x38>	0
<0x39>	0
<0x3A>	0
<0x3B>	0
<0x3C>	0
<0x3D>	0
<0x3E>	0
<0x3F>	0
<0x40>	0
<0x41>	0
<0x42>	0
<0x43>	0
<0x44>	0
<0x45>	0
<0x46>	0
<0x47>	0
<0x48>	0
<0x49>	0
<0x4A>	0
<0x4B>	0
<0x4C>	0
<0x4D>	0
<0x4E>	0
<0x4F>	0
<0x50>	0
<0x51>	0
<0x52>	0
<0x53>	0
<0x54>	0
<0x55>	0
<0x56>	0
<0x57>	0
<0x58>	0
<0x59>	0
<0x5A>	0
<0x5B>	0
<0x5C>	0
<0x5D>	0
<0x5E>	0
<0x5F>	0
<0x60>	0
<0x61>	0
<0x62>	0
<0x63>	0
<0x64>	0
<0x65>	0
<0x66>	0
<0x67>	0
<0x68>	0
<0x69>	0
<0x6A>	0
<0x6B>	0
<0x6C>	0
<0x6D>	0
<0x6E>	0
<0x6F>	0
<0x70>	0
<0x71>	0
<0x72>	0
<0x73>	0
<0x74>	0
<0x75>	0
<0x76>	0
<0x77>	0
<0x78>	0
<0x79>	0
<0x7A>	0
<0x7B>	0
<0x7C>	0
<0x7D>	0
<0x7E>	0
<0x7F>	0
<0x80>	0
<0x81>	0
<0x82>	0
<0x83>	0
<0x84>	0
<0x85>	0
<0x86>	0
<0x87>	0
<0x88>	0
<0x89>	0
<0x8A>	0
<0x8B>	0
<0x8C>	0
<0x8D>	0
<0x8E>	0
<0x8F>	0
<0x90>	0
<0x91>	0
<0x92>	0
<0x93>	0
<0x94>	0
<0x95>	0
<0x96>	0
<0x97>	0
<0x98>	0
<0x99>	0
<0x9A>	0
<0x9B>	0
<0x9C>	0
<0x9D>	0
<0x9E>	0
<0x9F>	0
<0xA0>	0
<0xA1>	0
<0xA2>	0
<0xA3>	0
<0xA4>	0
<0xA5>	0
<0xA6>	0
<0xA7>	0
<0xA8>	0
<0xA9>	0
<0xAA>	0
<0xAB>	0
<0xAC>	0
<0xAD>	0
<0xAE>	0
<0xAF>	0
<0xB0>	0
<0xB1>	0
<0xB2>	0
<0xB3>	0
<0xB4>	0
<0xB5>	0
<0xB6>	0
<0xB7>	0
<0xB8>	0
<0xB9>	0
<0xBA>	0
<0xBB>	0
<0xBC>	0
<0xBD>	0
<0xBE>	0
<0xBF>	0
<0xC0>	0
<0xC1>	0
<0xC2>	0
<0xC3>	0
<0xC4>	0
<0xC5>	0
<0xC6>	0
<0xC7>	0
<0xC8>	0
<0xC9>	0
<0xCA>	0
<0xCB>	0
<0xCC>	0
<0xCD>	0
<0xCE>	0
<0xCF>	0
<0xD0>	0
<0xD1>	0
<0xD2>	0
<0xD3>	0
<0xD4>	0
<0xD5>	0
<0xD6>	0
<0xD7>	0
<0xD8>	0
<0xD9>	0
<0xDA>	0
<0xDB>	0
<0xDC>	0
<0xDD>	0
<0xDE>	0
<0xDF>	0
<0xE0>	0
<0xE1>	0
<0xE2>	0
<0xE3>	0
<0xE4>	0
<0xE5>	0
<0xE6>	0
<0xE7>	0
<0xE8>	0
<0xE9>	0
<0xEA>	0
<0xEB>	0
<0xEC>	0
<0xED>	0
<0xEE>	0
<0xEF>	0
<0xF0>	0
<0xF1>	0
<0xF2>	0
<0xF3>	0
<0xF4>	0
<0xF5>	0
<0xF6>	0
<0xF7>	0
<0xF8>	0
<0xF9>	0
<0xFA>	0
<0xFB>	0
<0xFC>	0
<0xFD>	0
<0xFE>	0
<0xFF>	0
▁the	-3.25683
.	-3.33024
,	-3.41294
s	-3.55871
▁to	-3.87398
▁and	-3.9698
▁of	-4.02411
▁a	-4.05537
▁in	-4.24223
’	-4.72622
-	-4.83829
▁for	-4.88843
▁that	-4.96169
▁is	-5.03117
▁on	-5.04174
▁	-5.07321
▁“	-5.21418
▁with	-5.25232
▁The	-5.30779
▁was	-5.31264
▁said	-5.4038
▁at	-5.44139
▁it	-5.47817
▁be	-5.54078
t	-5.54601
▁as	-5.64385
'	-5.66499
ing	-5.67938
▁from	-5.70267
▁have	-5.71272
▁are	-5.71965
▁I	-5.7293
▁by	-5.73996
▁he	-5.74477
ed	-5.75577
▁has	-5.82152
▁will	-5.90725
▁his	-5.92469
:	-5.93304
▁an	-5.99358
d	-6.03126
▁this	-6.03983
▁not	-6.04503
▁their	-6.14443
▁who	-6.16286
▁we	-6.1711
▁they	-6.20647
▁but	-6.24361
,”	-6.26543
▁(	-6.26742
▁"	-6.28134
▁you	-6.30107
▁had	-6.30149
▁or	-6.30205
.”	-6.31564
▁been	-6.36393
▁were	-6.36995
m	-6.36999
▁A	-6.39584
▁more	-6.39923
)	-6.44564
er	-6.4632
▁up	-6.47262
▁about	-6.48159
▁out	-6.48373
▁one	-6.48767
▁can	-6.50449
▁which	-6.50619
▁all	-6.52599
ly	-6.55974
▁would	-6.57286
re	-6.57373
▁also	-6.58729
e	-6.59491
y	-6.62068
▁her	-6.62349
I	-6.63577
▁He	-6.69811
▁people	-6.69827
▁after	-6.70647
▁when	-6.7395
▁first	-6.73968
▁she	-6.75721
▁two	-6.75838
▁our	-6.7617
▁year	-6.76391
▁time	-6.76724
▁over	-6.77483
▁its	-6.82143
▁It	-6.82767
▁so	-6.86121
S	-6.87592
▁In	-6.88108
▁there	-6.89104
▁into	-6.89186
▁than	-6.90499
”	-6.90597
n	-6.91511
a	-6.93525
▁just	-6.95479
▁other	-6.95939
▁what	-6.97132
▁new	-7.00152
▁like	-7.00771
▁last	-7.02422
▁them	-7.03183
▁—	-7.03267
▁do	-7.04231
▁some	-7.05044
▁years	-7.06087
▁Trump	-7.08983
▁get	-7.12007
al	-7.1518
▁no	-7.1601
▁back	-7.16613
▁if	-7.16769
▁could	-7.194
▁him	-7.19571
th	-7.21247
r	-7.21533
ve	-7.21536
▁–	-7.22692
▁my	-7.22994
▁only	-7.24545
▁game	-7.25234
in	-7.25318
▁team	-7.26355
▁S	-7.26638
▁three	-7.26717
We	-7.26993
▁your	-7.27115
▁But	-7.27424
?	-7.28138
▁against	-7.29851
▁before	-7.31407
▁now	-7.32988
▁because	-7.34586
▁make	-7.35164
▁being	-7.35959
▁We	-7.36515
▁where	-7.36842
ers	-7.38229
▁through	-7.39831
,"	-7.39869
▁well	-7.39998
▁work	-7.40167
o	-7.41065
▁made	-7.41066
es	-7.41883
/	-7.42542
▁how	-7.42718
▁U	-7.44019
▁me	-7.45044
;	-7.45169
▁most	-7.45277
▁season	-7.45331
▁off	-7.46849
▁going	-7.47001
▁any	-7.47122
▁many	-7.47988
▁while	-7.48011
The	-7.48911
▁home	-7.48994
▁way	-7.49125
▁good	-7.49734
▁those	-7.502
▁down	-7.5023
."	-7.50351
▁state	-7.50427
en	-7.53103
▁us	-7.53738
▁government	-7.54097
▁take	-7.55193
▁Mr	-7.55226
▁This	-7.55443
▁p	-7.5548
▁day	-7.55489
▁week	-7.56144
▁second	-7.57143
ll	-7.57893
▁go	-7.58087
▁very	-7.58644
▁should	-7.58829
▁says	-7.60677
▁think	-7.62697
on	-7.62979
i	-7.63178
It	-7.63412
▁per	-7.63984
▁during	-7.64782
▁see	-7.64823
▁since	-7.65464
▁B	-7.65789
▁even	-7.66391
▁such	-7.67086
▁under	-7.67087
▁10	-7.67655
▁then	-7.67861
▁E	-7.67968
▁need	-7.67986
com	-7.68017
▁P	-7.68628
▁-	-7.68716
▁next	-7.69049
▁four	-7.69068
▁part	-7.69476
▁much	-7.69503
A	-7.69866
▁She	-7.70287
▁play	-7.7081
▁know	-7.71392
▁don	-7.718
▁want	-7.719
▁State	-7.72051
▁still	-7.72727
▁did	-7.72761
▁around	-7.73446
▁re	-7.73525
▁M	-7.74025
▁help	-7.744
▁police	-7.74777
▁right	-7.75732
▁country	-7.76358
▁these	-7.76589
▁including	-7.76664
▁told	-7.76962
▁2016	-7.77026
or	-7.77299
man	-7.7744
▁both	-7.77822
▁D	-7.77912
▁between	-7.77935
▁win	-7.78573
▁They	-7.78594
▁1	-7.79081
▁‘	-7.79746
▁percent	-7.79779
C	-7.79908
▁C	-7.80461
▁New	-7.80608
k	-7.81234
▁million	-7.81383
▁come	-7.81659
year	-7.81792
▁really	-7.82178
▁And	-7.82348
▁public	-7.82423
▁may	-7.83314
▁Clinton	-7.83375
▁school	-7.83504
▁students	-7.83715
c	-7.83857
▁place	-7.85022
▁end	-7.85154
▁world	-7.85512
▁night	-7.86169
▁say	-7.86758
▁election	-7.87024
▁here	-7.8741
▁long	-7.88023
▁got	-7.88387
▁set	-7.88788
▁man	-7.89259
"	-7.89649
▁high	-7.89693
▁For	-7.89813
▁support	-7.90084
▁lot	-7.90284
▁T	-7.90912
▁O	-7.91756
ic	-7.91853
▁city	-7.91981
▁N	-7.93282
▁best	-7.93727
▁five	-7.93732
▁K	-7.93771
▁2	-7.93781
▁local	-7.94004
B	-7.94005
▁put	-7.94135
ar	-7.94283
▁family	-7.94516
T	-7.95379
▁life	-7.95379
le	-7.95454
▁another	-7.95478
▁campaign	-7.95623
old	-7.96142
▁own	-7.96185
▁company	-7.96238
l	-7.96548
an	-7.96693
▁found	-7.9755
▁un	-7.98106
▁left	-7.98917
▁business	-7.98944
p	-7.99243
▁same	-7.9947
▁group	-7.99589
▁community	-7.99932
▁County	-8.01896
▁R	-8.01922
▁G	-8.03286
▁Saturday	-8.03364
▁That	-8.03409
▁information	-8.03518
▁use	-8.04104
▁great	-8.04205
▁As	-8.04262
g	-8.04551
to	-8.04913
▁won	-8.05433
▁Friday	-8.05591
▁There	-8.05811
▁came	-8.06144
▁show	-8.06364
▁every	-8.06436
▁St	-8.06579
N	-8.07123
▁former	-8.08582
▁each	-8.08712
▁top	-8.08973
▁run	-8.09327
▁Tuesday	-8.10169
▁third	-8.10904
▁children	-8.11015
▁too	-8.11234
▁November	-8.11382
▁20	-8.11462
▁took	-8.11534
▁number	-8.11655
▁F	-8.11843
D	-8.11877
▁11	-8.11896
▁If	-8.11903
▁past	-8.12039
P	-8.12082
▁3	-8.12116
G	-8.12139
b	-8.12183
▁better	-8.13043
▁added	-8.13127
▁area	-8.14038
▁half	-8.14129
h	-8.14706
▁No	-8.15073
▁de	-8.15099
),	-8.15313
▁president	-8.15587
able	-8.15751
▁women	-8.1582
▁President	-8.1643
▁early	-8.16558
am	-8.16714
ion	-8.16892
▁points	-8.16922
▁5	-8.17266
▁few	-8.17287
▁report	-8.17338
▁away	-8.17822
▁things	-8.1784
u	-8.18185
▁cent	-8.18541
▁4	-8.18585
▁never	-8.18631
K	-8.19034
▁City	-8.19578
▁start	-8.19649
▁used	-8.19767
▁big	-8.19776
F	-8.19789
▁7	-8.19934
▁didn	-8.19976
▁find	-8.20204
▁United	-8.2053
▁lead	-8.20537
▁according	-8.2147
▁members	-8.21498
▁days	-8.2159
M	-8.22016
▁12	-8.22261
▁called	-8.22328
el	-8.22434
▁money	-8.22588
▁six	-8.22644
▁So	-8.22838
▁across	-8.22897
▁open	-8.23012
▁8	-8.23238
▁something	-8.23395
▁Monday	-8.23724
▁Nov	-8.23974
▁market	-8.23985
▁19	-8.24424
ation	-8.24465
▁You	-8.2477
▁court	-8.24869
▁event	-8.25204
ity	-8.25283
ton	-8.25363
▁On	-8.2541
il	-8.2563
▁different	-8.25636
▁look	-8.25959
▁North	-8.26369
▁always	-8.26438
▁working	-8.26511
▁went	-8.27319
▁change	-8.27585
▁little	-8.27626
▁final	-8.27964
▁Wednesday	-8.28052
▁might	-8.28096
▁case	-8.28277
▁goal	-8.28471
▁vote	-8.28813
▁without	-8.29491
E	-8.29537
▁month	-8.29537
▁South	-8.29648
▁Sunday	-8.30195
▁October	-8.3032
▁able	-8.30406
▁Thursday	-8.30646
▁6	-8.30652
▁University	-8.30767
▁H	-8.30794
▁To	-8.30994
▁games	-8.31636
▁free	-8.31698
▁car	-8.31774
▁side	-8.31776
▁until	-8.31872
son	-8.32039
▁head	-8.3231
▁L	-8.32577
ment	-8.32646
▁again	-8.3307
ne	-8.33173
▁point	-8.33476
▁give	-8.33644
2	-8.33939
it	-8.34045
▁water	-8.34276
▁service	-8.34491
▁far	-8.34747
▁already	-8.34778
▁W	-8.35115
ri	-8.35203
▁months	-8.35281
▁making	-8.35391
co	-8.35405
ur	-8.35589
▁forward	-8.35751
▁political	-8.35962
▁ago	-8.36148
▁line	-8.36183
▁must	-8.36568
up	-8.36634
▁law	-8.37094
▁US	-8.3729
▁hard	-8.37636
▁players	-8.37694
▁health	-8.37859
▁later	-8.37861
▁yards	-8.38318
▁At	-8.38386
▁system	-8.38564
▁keep	-8.3902
▁full	-8.39092
▁party	-8.39227
▁important	-8.39369
W	-8.39557
ch	-8.39736
▁media	-8.39773
the	-8.40099
▁Re	-8.4015
▁When	-8.40766
us	-8.40906
▁future	-8.41056
ce	-8.41159
▁office	-8.41386
▁held	-8.42203
▁having	-8.43062
w	-8.43104
▁today	-8.43308
▁National	-8.43409
▁American	-8.43514
▁does	-8.4356
▁15	-8.43794
▁development	-8.44136
na	-8.44547
▁call	-8.44823
ra	-8.45164
▁several	-8.45206
▁Co	-8.45284
▁coach	-8.45607
▁West	-8.46015
▁project	-8.461
▁close	-8.46438
▁together	-8.4648
1	-8.46652
▁started	-8.47156
▁men	-8.47187
ist	-8.47263
▁pay	-8.47411
▁process	-8.47463
▁ball	-8.47497
ry	-8.47667
ley	-8.47704
is	-8.47779
▁minutes	-8.47798
▁decision	-8.48296
▁feel	-8.48524
▁taken	-8.48641
▁services	-8.48694
▁Police	-8.48737
▁experience	-8.48868
▁become	-8.49045
▁Oct	-8.49062
▁program	-8.49172
▁De	-8.49222
▁among	-8.49416
▁power	-8.49467
▁job	-8.49879
z	-8.49901
▁national	-8.49922
▁care	-8.50406
▁9	-8.50499
▁deal	-8.50528
▁asked	-8.50625
▁played	-8.50723
la	-8.50795
▁All	-8.50906
▁After	-8.50947
▁young	-8.51012
▁With	-8.5102
▁food	-8.51189
▁continue	-8.51256
H	-8.51306
▁meeting	-8.51361
▁major	-8.51413
▁plan	-8.51606
▁done	-8.51707
st	-8.51761
and	-8.51976
▁J	-8.52098
L	-8.52268
▁School	-8.52516
▁One	-8.52658
▁Donald	-8.53018
▁Republican	-8.53174
▁news	-8.53253
▁following	-8.53345
).	-8.53437
▁seen	-8.53524
▁real	-8.5384
▁House	-8.53938
▁staff	-8.5421
▁18	-8.54374
▁getting	-8.54435
R	-8.5446
▁given	-8.5463
▁visit	-8.54861
▁along	-8.54954
▁move	-8.54982
▁coming	-8.5501
ling	-8.55448
▁board	-8.55808
ro	-8.55961
▁times	-8.5598
▁expected	-8.56012
▁An	-8.56249
▁looking	-8.56488
▁live	-8.56609
ia	-8.56699
f	-8.56896
▁enough	-8.56925
ent	-8.57093
te	-8.57113
▁John	-8.57165
▁less	-8.57274
ive	-8.57436
as	-8.57634
▁quarter	-8.578
▁doing	-8.5805
at	-8.58119
▁least	-8.58466
▁within	-8.58471
▁near	-8.58508
▁taking	-8.58634
▁thing	-8.58655
▁Dr	-8.58871
▁building	-8.59051
▁social	-8.59071
▁13	-8.59076
▁whether	-8.59267
▁small	-8.59462
ty	-8.59465
ie	-8.59667
▁hit	-8.5969
▁fire	-8.5976
▁person	-8.59958
V	-8.60164
5	-8.60304
▁face	-8.60705
▁am	-8.6089
!	-8.61212
▁Minister	-8.61356
▁behind	-8.61589
▁issue	-8.61638
▁late	-8.61678
▁though	-8.61683
▁statement	-8.61709
▁issues	-8.618
▁Park	-8.61815
▁recent	-8.61966
▁30	-8.62054
▁co	-8.62253
ir	-8.62285
et	-8.62287
▁lost	-8.623
de	-8.62407
▁why	-8.62453
▁love	-8.6246
▁La	-8.62562
▁field	-8.62674
▁director	-8.62738
time	-8.62842
age	-8.62869
▁Court	-8.63099
▁led	-8.63248
ma	-8.63257
▁trying	-8.63596
▁14	-8.63633
▁However	-8.63863
▁provide	-8.63996
▁due	-8.64002
▁football	-8.64128
▁race	-8.64335
▁officials	-8.64353
ting	-8.64495
▁tax	-8.64526
lo	-8.64622
▁running	-8.64635
▁Department	-8.64719
▁--	-8.64828
▁50	-8.64856
▁Mo	-8.6511
▁record	-8.652
▁World	-8.6535
▁available	-8.65588
▁special	-8.65834
▁order	-8.66218
est	-8.66394
▁sure	-8.66468
ta	-8.66885
▁industry	-8.66949
▁What	-8.6717
3	-8.67186
▁kind	-8.6719
▁house	-8.67344
He	-8.67371
▁level	-8.67409
▁front	-8.67593
land	-8.67762
▁club	-8.67938
▁voters	-8.68021
▁UK	-8.68556
▁woman	-8.68911
▁believe	-8.68919
▁further	-8.69151
▁period	-8.69219
▁seven	-8.69356
▁road	-8.69381
▁saying	-8.69383
▁York	-8.69591
▁reported	-8.69793
▁doesn	-8.69836
ine	-8.69873
▁thought	-8.6996
▁senior	-8.69972
▁25	-8.70135
▁16	-8.70164
▁playing	-8.70193
▁story	-8.70222
un	-8.70374
▁once	-8.70417
▁victory	-8.70657
This	-8.70697
▁21	-8.70793
▁presidential	-8.71181
▁history	-8.71476
ness	-8.71554
▁yet	-8.71611
▁While	-8.72021
▁hours	-8.72073
▁include	-8.72109
li	-8.72475
▁hand	-8.72505
▁music	-8.72516
▁shot	-8.72654
ies	-8.72664
▁Al	-8.73055
▁ever	-8.73059
ary	-8.73447
▁eight	-8.73913
▁likely	-8.74096
▁cost	-8.7414
▁short	-8.74144
▁clear	-8.74419
▁wanted	-8.74432
▁billion	-8.74476
▁17	-8.74992
▁By	-8.75068
▁career	-8.75165
▁received	-8.75253
▁weeks	-8.75479
▁post	-8.75523
▁student	-8.75613
▁America	-8.75672
▁bring	-8.75947
▁old	-8.75999
▁strong	-8.76406
▁fact	-8.76483
▁course	-8.76496
▁&	-8.76505
▁companies	-8.76632
▁outside	-8.76647
ter	-8.76807
▁current	-8.77162
▁position	-8.77217
▁chance	-8.77291
▁town	-8.77339
▁others	-8.77573
▁earlier	-8.77926
▁increase	-8.78177
J	-8.78223
▁possible	-8.7834
4	-8.78355
▁stop	-8.78403
▁name	-8.78406
▁large	-8.78443
▁saw	-8.78469
▁Center	-8.78627
▁morning	-8.7882
▁member	-8.78825
yard	-8.79041
▁plans	-8.79087
ate	-8.79331
▁known	-8.79675
▁control	-8.79678
▁Street	-8.79815
▁total	-8.79897
go	-8.79903
▁meet	-8.79921
x	-8.7995
▁His	-8.80218
▁needs	-8.80643
▁opportunity	-8.80761
▁growth	-8.80973
out	-8.80999
ul	-8.81033
▁Washington	-8.81174
▁access	-8.81193
▁return	-8.81199
line	-8.81214
▁scored	-8.8132
▁Ra	-8.81522
▁policy	-8.81568
▁using	-8.81646
▁often	-8.81658
▁Council	-8.81772
id	-8.81804
▁role	-8.8181
▁announced	-8.82029
di	-8.82032
▁Obama	-8.82195
ge	-8.82317
▁security	-8.82457
▁key	-8.8263
▁High	-8.82642
less	-8.82656
▁teams	-8.82807
▁comes	-8.83051
▁financial	-8.83268
O	-8.8334
▁result	-8.83835
▁...	-8.83862
▁bit	-8.83955
▁East	-8.84148
▁try	-8.84161
ci	-8.84241
▁international	-8.8429
rs	-8.8429
▁almost	-8.84332
ex	-8.84387
▁death	-8.84406
▁performance	-8.84619
▁pass	-8.84793
be	-8.84819
▁district	-8.85103
▁China	-8.85281
▁results	-8.85845
▁economic	-8.85935
led	-8.85959
▁involved	-8.85991
ad	-8.863
▁candidate	-8.8639
▁Le	-8.867
▁action	-8.86784
ner	-8.87006
▁land	-8.87229
▁'	-8.87263
▁match	-8.87494
▁News	-8.87584
▁According	-8.876
▁weekend	-8.87714
do	-8.8779
▁hope	-8.87791
▁low	-8.8781
we	-8.88261
▁based	-8.88304
▁couple	-8.88379
▁release	-8.88409
ant	-8.88446
▁share	-8.88464
▁States	-8.88637
▁Hillary	-8.88649
6	-8.88811
▁film	-8.88833
▁friends	-8.89047
▁loss	-8.89062
▁e	-8.8947
▁began	-8.89498
▁research	-8.89631
▁single	-8.89679
▁council	-8.89999
ke	-8.90055
▁create	-8.9007
▁war	-8.90101
▁Day	-8.90148
▁impact	-8.90201
▁countries	-8.90266
▁recently	-8.90417
ti	-8.90667
▁District	-8.90751
▁Press	-8.90904
▁manager	-8.90912
There	-8.91009
se	-8.91012
▁gave	-8.91029
▁areas	-8.91058
▁Road	-8.91087
▁room	-8.91194
ish	-8.91355
pm	-8.91376
um	-8.91413
▁Do	-8.91466
▁matter	-8.9152
▁data	-8.91757
▁League	-8.91866
▁needed	-8.91868
no	-8.91901
ian	-8.92123
▁player	-8.92139
▁everyone	-8.92179
mo	-8.92593
▁residents	-8.93155
▁property	-8.93252
▁V	-8.93377
▁global	-8.93417
▁ahead	-8.93475
▁education	-8.93824
▁especially	-8.93872
▁means	-8.93874
▁space	-8.93916
▁ground	-8.93929
▁chief	-8.94331
▁leave	-8.94354
▁pre	-8.94443
▁interest	-8.94474
▁someone	-8.94493
▁May	-8.94551
▁non	-8.94595
7	-8.94667
▁private	-8.94778
U	-8.94801
▁leading	-8.95032
▁defense	-8.95062
▁let	-8.95112
ha	-8.95241
▁100	-8.95302
▁Some	-8.95305
side	-8.95505
▁series	-8.95558
▁black	-8.95592
▁officers	-8.95615
▁drive	-8.9565
▁site	-8.95695
▁trade	-8.958
▁build	-8.96131
▁round	-8.96203
▁offer	-8.9621
▁fourth	-8.96375
▁body	-8.96414
▁federal	-8.96415
▁worked	-8.96454
—	-8.96682
im	-8.96722
me	-8.96931
▁view	-8.97026
▁Twitter	-8.97053
▁region	-8.97054
▁leader	-8.97258
▁Be	-8.97283
▁con	-8.9731
▁air	-8.97313
▁September	-8.97432
They	-8.97485
▁events	-8.97546
ah	-8.97554
▁fall	-8.97565
Y	-8.97593
...	-8.97647
▁break	-8.97677
ating	-8.97724
▁ensure	-8.97766
▁College	-8.97799
▁online	-8.98101
ated	-8.98109
▁everything	-8.98228
▁released	-8.98813
▁My	-8.98854
ted	-8.98903
▁goals	-8.99008
▁officer	-8.99093
▁read	-8.99097
▁rest	-8.99234
▁general	-8.99629
0	-8.99662
▁problem	-8.99668
▁White	-8.997
▁fans	-9.00255
▁Democratic	-9.00286
▁Go	-9.00311
based	-9.00358
▁Bank	-9.00409
▁Canada	-9.00503
▁San	-9.00598
▁anything	-9.00698
ak	-9.00924
▁wasn	-9.00943
▁website	-9.01326
▁college	-9.01399
by	-9.01493
ca	-9.01614
▁leaders	-9.01703
▁cut	-9.01886
▁nation	-9.01928
ni	-9.01935
▁potential	-9.01941
one	-9.02028
▁24	-9.02098
▁training	-9.02103
▁David	-9.02175
▁conference	-9.02544
▁human	-9.02553
▁heart	-9.02648
off	-9.02806
▁child	-9.03053
da	-9.0326
▁executive	-9.03447
way	-9.03484
▁lives	-9.03644
▁investigation	-9.03732
▁currently	-9.03828
nd	-9.03848
▁Ben	-9.03885
▁Mar	-9.04049
▁22	-9.04177
▁military	-9.04282
▁success	-9.04352
▁nearly	-9.04373
▁hold	-9.04376
▁40	-9.04554
ful	-9.04581
▁customers	-9.047
▁schools	-9.04725
▁Man	-9.04728
▁$1	-9.04837
▁dis	-9.04883
8	-9.0508
://	-9.05118
▁Government	-9.05199
▁opening	-9.05222
den	-9.05332
▁London	-9.05791
▁white	-9.05816
▁Paul	-9.05928
ba	-9.06021
▁however	-9.06114
▁whole	-9.06285
▁risk	-9.06371
▁Facebook	-9.06476
▁light	-9.06597
▁video	-9.06707
day	-9.06803
▁Cup	-9.06846
▁makes	-9.06865
▁energy	-9.06906
▁economy	-9.07096
In	-9.07106
▁pro	-9.07212
▁More	-9.07289
▁technology	-9.07298
▁states	-9.07371
▁nine	-9.07664
▁mother	-9.07796
▁families	-9.08077
▁turn	-9.08186
▁themselves	-9.08349
▁league	-9.08486
▁focus	-9.08532
▁himself	-9.08643
▁sales	-9.08662
▁India	-9.08753
▁Lo	-9.0877
▁whose	-9.08824
▁living	-9.08842
▁list	-9.08877
▁talk	-9.08877
9	-9.08904
▁attack	-9.09039
▁class	-9.09109
▁latest	-9.09164
▁James	-9.09284
▁score	-9.09293
ler	-9.09312
▁official	-9.09324
▁brought	-9.09326
▁hospital	-9.09411
ey	-9.09431
▁winning	-9.09542
You	-9.09574
ard	-9.09714
▁killed	-9.09851
▁county	-9.09874
▁Smith	-9.09894
▁stage	-9.10124
▁management	-9.10226
”.	-9.10258
▁stay	-9.10314
▁actually	-9.10314
▁safety	-9.10343
▁oil	-9.10652
▁parents	-9.10782
▁felt	-9.10806
▁book	-9.10894
▁nothing	-9.10954
▁died	-9.11177
▁bank	-9.1123
▁legal	-9.11292
▁age	-9.114
of	-9.11671
▁understand	-9.1171
▁idea	-9.11741
wa	-9.11758
▁heard	-9.11795
per	-9.11816
▁rights	-9.11909
▁rate	-9.1194
▁European	-9.12097
▁personal	-9.12234
▁England	-9.12286
ism	-9.12294
▁Service	-9.12335
▁main	-9.12346
▁Na	-9.12608
▁fight	-9.12749
▁Ko	-9.12879
▁Her	-9.12917
▁sent	-9.12951
▁question	-9.13029
▁helped	-9.13044
▁ex	-9.13157
▁price	-9.13162
ut	-9.13224
▁became	-9.13391
▁situation	-9.13474
▁son	-9.13482
field	-9.13529
▁title	-9.13611
▁higher	-9.13625
▁kids	-9.13633
▁medical	-9.13715
▁anti	-9.13771
▁Michael	-9.13865
▁present	-9.13939
▁stand	-9.13955
▁spent	-9.1397
ham	-9.13995
ally	-9.14018
▁Z	-9.14073
▁allow	-9.14155
▁bad	-9.14169
ap	-9.14181
▁businesses	-9.1426
▁either	-9.1427
▁annual	-9.14304
▁reports	-9.1431
▁difficult	-9.14478
▁throughout	-9.14546
▁t	-9.14602
ger	-9.1465
▁El	-9.147
▁incident	-9.14904
▁groups	-9.15007
If	-9.15091
ous	-9.15204
ka	-9.15273
▁Johnson	-9.15295
▁production	-9.15352
▁Ka	-9.15372
▁anyone	-9.15382
▁candidates	-9.15433
our	-9.15546
▁December	-9.15555
der	-9.15567
▁Chief	-9.15602
▁products	-9.1564
▁email	-9.15766
00	-9.1588
con	-9.16162
▁soon	-9.16262
▁Bo	-9.16388
min	-9.1641
▁biggest	-9.16415
▁2015	-9.16425
▁average	-9.16433
▁committee	-9.16631
▁turned	-9.16813
▁reason	-9.1686
▁similar	-9.16977
▁form	-9.17212
ko	-9.17284
bo	-9.17447
▁inside	-9.17552
▁debate	-9.17569
▁voting	-9.17628
▁term	-9.17651
▁23	-9.17683
▁tell	-9.17722
▁despite	-9.17808
▁Ms	-9.17817
▁Group	-9.18078
▁effort	-9.18083
▁previous	-9.18096
▁British	-9.18172
▁quality	-9.18205
▁showed	-9.18294
▁Green	-9.18384
que	-9.18393
▁met	-9.18604
▁Hall	-9.18669
ning	-9.18775
▁study	-9.18813
▁amount	-9.18856
ig	-9.18905
▁rather	-9.19022
men	-9.1926
ee	-9.19672
▁investment	-9.197
▁decided	-9.19901
▁fun	-9.20306
▁b	-9.20357
▁huge	-9.20672
▁beat	-9.20814
▁allowed	-9.20845
▁shows	-9.20848
▁father	-9.20926
▁learn	-9.21019
▁problems	-9.21258
▁workers	-9.21609
▁Ar	-9.21618
▁included	-9.21631
▁f	-9.21643
▁isn	-9.21728
▁Association	-9.21821
▁Florida	-9.21884
▁remain	-9.21973
▁finished	-9.22089
▁campus	-9.22164
▁happened	-9.22192
▁evidence	-9.22205
▁Now	-9.22256
tic	-9.22274
▁lack	-9.22284
ville	-9.22319
lin	-9.22443
▁range	-9.22555
▁competition	-9.22563
▁crowd	-9.22608
▁wrote	-9.2268
▁Black	-9.2271
▁Ma	-9.22748
▁contact	-9.22817
▁Party	-9.22878
ck	-9.22909
▁pressure	-9.22966
ial	-9.22969
▁Brown	-9.22984
▁jobs	-9.23057
qui	-9.23339
▁administration	-9.23437
▁probably	-9.23455
0,000	-9.23474
▁starting	-9.23573
red	-9.23589
▁bar	-9.23851
▁receive	-9.2426
va	-9.24276
▁Health	-9.24476
▁store	-9.24636
ol	-9.24712
▁arrested	-9.24732
▁step	-9.24852
▁cause	-9.24918
▁example	-9.24933
▁continued	-9.25013
he	-9.25047
▁wife	-9.25057
▁positive	-9.25131
▁host	-9.25169
▁vehicle	-9.25177
▁Red	-9.25217
dy	-9.25301
30	-9.25302
▁various	-9.25337
▁paid	-9.25391
hi	-9.25495
▁moved	-9.25536
▁moment	-9.25537
▁comments	-9.2563
▁scene	-9.25633
▁terms	-9.25679
▁changes	-9.25749
▁Ho	-9.25823
os	-9.26041
▁cannot	-9.26124
▁efforts	-9.26327
em	-9.26383
▁Mark	-9.26461
▁raised	-9.26553
▁Hill	-9.26577
▁capital	-9.26646
▁value	-9.26668
▁star	-9.26723
▁ready	-9.2673
▁Ro	-9.26859
▁Sh	-9.26865
▁Ireland	-9.26912
▁War	-9.2705
▁force	-9.27349
▁stories	-9.27378
▁press	-9.27461
▁These	-9.27507
▁art	-9.27606
▁significant	-9.27623
▁giving	-9.27706
▁knew	-9.27783
▁International	-9.27802
▁costs	-9.27811
▁review	-9.27853
▁California	-9.27914
▁growing	-9.27938
▁response	-9.27953
▁addition	-9.28039
▁foreign	-9.28076
▁challenge	-9.28143
▁minute	-9.2834
▁wants	-9.28353
▁improve	-9.28392
▁address	-9.28411
point	-9.28475
▁centre	-9.28476
▁sector	-9.28529
▁served	-9.28621
po	-9.28626
▁summer	-9.28677
▁28	-9.28712
▁projects	-9.28775
▁Act	-9.28848
▁budget	-9.28875
ise	-9.28891
&	-9.28927
▁charges	-9.29001
▁Not	-9.29107
▁touchdown	-9.29184
▁Most	-9.29202
▁charge	-9.29235
ang	-9.29453
▁cash	-9.29526
▁injury	-9.29662
▁questions	-9.29857
▁ask	-9.29902
▁straight	-9.29979
▁treatment	-9.3005
▁Con	-9.30223
pi	-9.3044
▁pretty	-9.30554
▁August	-9.30687
all	-9.30719
▁Office	-9.30764
ance	-9.30783
▁happy	-9.30843
▁River	-9.30844
▁cases	-9.30915
▁ended	-9.30975
▁ran	-9.31064
▁self	-9.31236
▁trial	-9.31239
▁raise	-9.31311
▁Or	-9.31363
▁quite	-9.31506
▁English	-9.31528
▁longer	-9.31543
▁lower	-9.3157
▁serious	-9.31642
▁practice	-9.31704
sh	-9.31833
▁via	-9.31917
▁Inc	-9.31986
▁adding	-9.32211
▁conditions	-9.3232
▁27	-9.32333
▁travel	-9.32337
▁sense	-9.32435
▁provided	-9.32445
▁department	-9.32497
▁sign	-9.3253
▁Bill	-9.32575
▁Pro	-9.32578
▁funding	-9.32599
50	-9.32616
▁$2	-9.32673
▁Director	-9.3272
▁phone	-9.3278
▁Board	-9.32794
▁includes	-9.3285
▁benefit	-9.32855
ot	-9.32899
▁forces	-9.32961
▁easy	-9.3297
les	-9.32972
mer	-9.33139
▁center	-9.33159
ay	-9.33356
▁First	-9.33376
▁prices	-9.33379
▁traffic	-9.33432
▁July	-9.33471
▁www	-9.3366
▁opened	-9.3381
▁red	-9.33818
ac	-9.33919
▁EU	-9.34214
ten	-9.3438
▁regular	-9.34425
▁firm	-9.34469
op	-9.34832
▁Senate	-9.34932
▁table	-9.34957
▁Central	-9.34961
▁pick	-9.34994
▁26	-9.35043
▁c	-9.35296
▁watch	-9.35324
▁June	-9.35413
▁happen	-9.35421
▁Europe	-9.35534
▁agreement	-9.35616
ford	-9.35685
▁walk	-9.3573
▁drug	-9.35756
▁Jones	-9.35788
▁wide	-9.3588
,000	-9.35975
▁Bar	-9.36101
▁construction	-9.36255
ny	-9.36369
▁mind	-9.36413
▁tried	-9.36432
▁TV	-9.36475
▁Union	-9.36492
▁sexual	-9.36503
▁buy	-9.36681
▁Company	-9.36742
That	-9.36903
▁cross	-9.36954
▁band	-9.37
▁Commission	-9.37141
▁2014	-9.37171
▁failed	-9.37182
▁supporters	-9.37205
▁popular	-9.37226
▁Africa	-9.37232
▁instead	-9.3749
▁yesterday	-9.37521
▁goes	-9.37618
▁evening	-9.3768
j	-9.37792
▁charged	-9.37903
▁Carolina	-9.37919
▁Two	-9.37935
▁Canadian	-9.38003
▁works	-9.3801
pe	-9.38041
han	-9.3822
▁v	-9.38236
▁concerns	-9.38249
▁daughter	-9.38253
▁sp	-9.38276
▁followed	-9.38283
▁0	-9.38301
▁safe	-9.38366
▁Di	-9.38372
▁takes	-9.38459
ns	-9.38465
▁judge	-9.38657
▁camp	-9.387
▁wrong	-9.38747
▁account	-9.38772
v	-9.38774
▁looked	-9.38791
▁environment	-9.38794
▁comment	-9.3884
▁fell	-9.38842
▁common	-9.3885
ney	-9.38856
▁letter	-9.38951
▁serve	-9.38957
ow	-9.3904
▁individual	-9.39055
▁Don	-9.39164
▁expect	-9.39234
ions	-9.39237
au	-9.39437
▁created	-9.39443
▁remains	-9.39487
▁How	-9.39491
▁Congress	-9.39562
▁g	-9.39572
▁opportunities	-9.39605
▁communities	-9.39734
▁accused	-9.39805
▁Ca	-9.39835
▁Pa	-9.39855
ab	-9.39977
▁certain	-9.40054
▁hearing	-9.40071
▁gas	-9.40076
ster	-9.401
▁extra	-9.40123
▁Even	-9.40139
ized	-9.40268
wood	-9.40324
▁complete	-9.40558
▁largest	-9.40819
▁built	-9.40845
▁employees	-9.41089
▁Ghana	-9.41133
But	-9.4119
▁quickly	-9.41222
uk	-9.41265
▁entire	-9.41322
▁contract	-9.41355
▁closed	-9.41423
▁named	-9.41452
▁date	-9.41566
▁reach	-9.41657
▁tough	-9.41688
ier	-9.41706
▁required	-9.41736
▁shooting	-9.41763
▁towards	-9.4181
▁criminal	-9.41864
▁Li	-9.41925
▁majority	-9.41939
▁seems	-9.41973
▁respect	-9.42028
ud	-9.42115
▁friend	-9.4213
▁cancer	-9.42229
▁March	-9.42257
▁statements	-9.42275
▁mean	-9.42302
bi	-9.42419
▁driving	-9.42437
▁Lake	-9.42438
▁Last	-9.42472
▁w	-9.42483
▁African	-9.425
▁attention	-9.42564
▁track	-9.42655
▁net	-9.42669
▁60	-9.42695
▁subject	-9.42722
back	-9.43076
▁gone	-9.43107
for	-9.43144
▁design	-9.43189
▁audience	-9.432
▁itself	-9.43303
▁prison	-9.43686
▁else	-9.4369
▁Christmas	-9.43691
▁interview	-9.43812
▁lose	-9.43869
▁n	-9.43875
▁base	-9.44035
ub	-9.44056
▁described	-9.44125
▁housing	-9.44142
▁parties	-9.44158
ip	-9.44226
▁increased	-9.44419
▁Justice	-9.44469
▁Hu	-9.44601
ya	-9.44624
▁January	-9.44688
▁fine	-9.4471
▁votes	-9.44725
▁sports	-9.44738
▁ways	-9.44869
▁immediately	-9.44884
▁speak	-9.44911
▁station	-9.45031
▁particularly	-9.45089
▁Miami	-9.45105
▁Ta	-9.45178
▁demand	-9.45184
AP	-9.45297
▁voted	-9.45409
vo	-9.45622
▁guys	-9.4564
▁hands	-9.45652
▁page	-9.45697
▁message	-9.45732
▁moving	-9.45749
▁couldn	-9.45786
▁kept	-9.45802
▁spot	-9.45882
▁assault	-9.46038
ran	-9.46066
▁approach	-9.46087
▁funds	-9.46133
▁Car	-9.46133
▁Sam	-9.4617
fa	-9.46188
▁above	-9.46337
▁enjoy	-9.46351
▁begin	-9.46455
▁passed	-9.46504
▁population	-9.46507
du	-9.46586
▁additional	-9.46611
▁Club	-9.46657
▁tour	-9.46756
▁door	-9.4686
▁corner	-9.46943
▁credit	-9.46943
ana	-9.47019
▁sell	-9.47171
▁minister	-9.47188
▁Texas	-9.47192
▁overall	-9.47192
lan	-9.47315
▁planning	-9.47345
▁reached	-9.47362
▁rise	-9.47424
▁trip	-9.47505
▁elected	-9.47516
▁Se	-9.47582
▁Dan	-9.47584
ite	-9.47639
▁spokesman	-9.47642
▁afternoon	-9.47721
▁true	-9.47763
▁driver	-9.47846
▁leadership	-9.47941
▁middle	-9.47991
▁finish	-9.48083
▁PR	-9.48378
▁grow	-9.48512
ised	-9.48671
▁relationship	-9.48677
ors	-9.48734
▁kick	-9.4876
ina	-9.48766
▁Scotland	-9.48774
▁Democrats	-9.48958
▁words	-9.4897
▁offensive	-9.48992
▁championship	-9.49038
▁double	-9.49044
▁Valley	-9.49064
▁activities	-9.49209
ph	-9.49214
▁offense	-9.49244
▁General	-9.49259
▁partner	-9.49263
▁successful	-9.4931
▁authorities	-9.49343
▁battle	-9.4936
▁hour	-9.49699
▁organization	-9.49737
ring	-9.49767
▁professional	-9.49782
ga	-9.4983
▁ability	-9.49858
▁Mike	-9.4989
▁returned	-9.49967
▁en	-9.50025
▁Town	-9.50036
▁elections	-9.50121
▁award	-9.50161
▁progress	-9.50308
▁Minnesota	-9.50327
▁Manchester	-9.50424
▁university	-9.50517
▁murder	-9.50657
▁toward	-9.50747
▁draw	-9.50774
mon	-9.50885
ven	-9.50891
▁Chris	-9.50902
▁quarterback	-9.50978
▁bill	-9.51063
▁Britain	-9.51114
om	-9.51143
▁culture	-9.51196
▁2017	-9.51206
▁agreed	-9.51331
ron	-9.51378
▁offered	-9.5143
▁Me	-9.51474
▁remember	-9.51578
▁block	-9.51595
▁advantage	-9.5165
▁protect	-9.51661
▁plays	-9.51672
▁follow	-9.51797
▁Ohio	-9.51928
▁protest	-9.51934
▁Ha	-9.5197
▁31	-9.52065
▁hear	-9.52071
▁worth	-9.52109
term	-9.52255
▁girls	-9.52375
▁Q	-9.52428
▁test	-9.52504
▁Centre	-9.52627
▁consider	-9.52662
ists	-9.52703
▁victim	-9.5272
▁content	-9.52734
▁although	-9.52736
▁forced	-9.5282
▁Y	-9.52857
▁leaving	-9.52858
▁defeat	-9.52971
▁Can	-9.53001
▁injuries	-9.53112
▁proposed	-9.53146
▁Japan	-9.53151
When	-9.53211
▁details	-9.53409
▁operations	-9.5342
▁damage	-9.53455
▁Gu	-9.53574
▁climate	-9.53576
ence	-9.53689
▁patients	-9.53698
▁29	-9.53868
▁Ryan	-9.53891
▁husband	-9.53907
▁Ba	-9.5395
▁park	-9.53957
mi	-9.53989
▁simply	-9.53993
▁choice	-9.54005
▁Williams	-9.54101
▁violence	-9.54103
▁network	-9.54131
▁Rock	-9.54149
20	-9.54288
▁deep	-9.5433
▁plant	-9.54602
▁act	-9.54642
▁Committee	-9.54671
▁cast	-9.54825
▁thousands	-9.54878
▁Public	-9.54904
▁attorney	-9.55005
▁signed	-9.55011
▁calls	-9.55115
▁Australia	-9.55425
ell	-9.55463
▁spending	-9.55464
ice	-9.55515
www	-9.55538
bu	-9.5567
ping	-9.55781
▁count	-9.55792
▁tournament	-9.55852
▁People	-9.55857
▁scoring	-9.55998
▁agency	-9.56027
▁rates	-9.56041
tra	-9.56141
▁Chinese	-9.56241
▁claims	-9.56291
▁offering	-9.56327
ft	-9.56351
▁join	-9.56364
▁Read	-9.56401
▁m	-9.5642
▁sub	-9.56438
▁appeared	-9.56643
▁Da	-9.56666
▁proud	-9.56682
▁check	-9.56792
▁movement	-9.56863
ek	-9.56872
▁Both	-9.56896
-3	-9.56903
▁numbers	-9.5692
▁add	-9.56931
▁Bay	-9.56942
▁resources	-9.56962
▁fear	-9.5708
▁seat	-9.57184
vi	-9.57186
▁income	-9.57339
ze	-9.57377
▁spend	-9.57523
▁Republicans	-9.57588
▁Thomas	-9.57594
▁changed	-9.57604
lu	-9.57644
▁Po	-9.57662
▁Brexit	-9.57675
end	-9.57721
tain	-9.57726
▁clean	-9.57779
▁gun	-9.57802
▁completed	-9.57887
▁35	-9.57902
▁Americans	-9.57911
▁Scott	-9.58015
▁injured	-9.58143
▁George	-9.58154
gi	-9.58159
ag	-9.58177
▁trust	-9.58178
▁chairman	-9.58277
ber	-9.58282
▁Our	-9.58332
▁During	-9.58358
▁appeal	-9.58394
▁purchase	-9.58446
▁Har	-9.58479
▁platform	-9.58579
▁compared	-9.5862
ever	-9.58662
▁politics	-9.58683
▁helping	-9.58782
▁Irish	-9.58811
▁Russia	-9.58823
▁considered	-9.58834
▁Share	-9.5884
ho	-9.58881
▁Rs	-9.58974
?”	-9.59078
▁revenue	-9.59155
▁crime	-9.59232
▁junior	-9.59366
▁spoke	-9.59426
▁ballot	-9.59497
head	-9.59503
▁Times	-9.59556
▁Chicago	-9.59665
▁Sa	-9.59676
▁From	-9.5977
▁markets	-9.59808
▁launched	-9.59942
▁CEO	-9.59997
▁youth	-9.60042
▁fund	-9.60063
▁poor	-9.60066
▁levels	-9.60187
over	-9.60225
▁Sie	-9.60244
ru	-9.60288
▁issued	-9.60295
▁fair	-9.60421
house	-9.60474
ai	-9.60678
▁Martin	-9.60763
▁Email	-9.60785
▁effect	-9.6081
▁product	-9.60853
▁avoid	-9.61019
▁benefits	-9.61033
sen	-9.61071
io	-9.61126
▁dead	-9.61194
▁Many	-9.61209
well	-9.61343
▁Ga	-9.61429
▁condition	-9.61515
▁pair	-9.61517
▁finally	-9.61519
▁beginning	-9.61606
▁Home	-9.61742
elect	-9.61786
▁mid	-9.61806
▁Tom	-9.61815
▁save	-9.6184
▁offers	-9.6187
▁Election	-9.61873
▁floor	-9.6205
▁reduce	-9.62143
gg	-9.62147
ities	-9.62235
▁beyond	-9.62246
▁perfect	-9.62252
▁street	-9.62327
▁independent	-9.62358
▁joined	-9.6243
▁Law	-9.62446
gu	-9.62672
▁seeking	-9.62753
▁$3	-9.62881
▁infrastructure	-9.63
▁caused	-9.63019
si	-9.63061
.5	-9.63075
▁April	-9.63116
▁claim	-9.6314
▁mis	-9.63144
▁society	-9.63251
▁Since	-9.63299
▁hopes	-9.63393
▁programs	-9.63494
wi	-9.6353
▁speed	-9.63534
(	-9.63567
▁rules	-9.63642
▁talking	-9.63778
▁policies	-9.63954
▁70	-9.63978
▁providing	-9.64035
▁cover	-9.64068
▁north	-9.64099
▁Halloween	-9.64117
rd	-9.64184
▁Wood	-9.64195
▁polls	-9.64235
low	-9.64246
▁box	-9.64416
ize	-9.64538
▁voice	-9.64601
▁zone	-9.64608
▁guard	-9.64733
▁previously	-9.64736
▁sound	-9.64757
▁caught	-9.64801
▁sale	-9.64863
▁Ja	-9.64863
▁owner	-9.64878
▁unit	-9.64907
▁author	-9.65047
▁brand	-9.65054
X	-9.65063
-1	-9.65075
▁noted	-9.6513
▁King	-9.65181
ization	-9.65185
▁commercial	-9.65238
ure	-9.65266
▁Lu	-9.65335
▁opposition	-9.65348
▁develop	-9.65363
▁challenges	-9.65377
▁runs	-9.65395
▁defensive	-9.65428
▁justice	-9.65618
▁blood	-9.65749
▁central	-9.65853
▁section	-9.65861
▁Report	-9.65925
ID	-9.6594
pro	-9.65958
▁guilty	-9.65979
▁Los	-9.6602
ship	-9.66076
▁poll	-9.66092
pa	-9.66096
▁secretary	-9.66103
▁approved	-9.66112
▁sh	-9.66125
▁Market	-9.6616
▁alone	-9.66246
▁dance	-9.66288
▁sold	-9.66366
▁la	-9.66401
▁winner	-9.66411
ea	-9.6644
ja	-9.66481
▁feet	-9.66501
▁daily	-9.66511
▁claimed	-9.66513
▁attempt	-9.6659
▁committed	-9.66696
▁penalty	-9.66803
king	-9.66806
▁calling	-9.66811
▁feeling	-9.66865
▁published	-9.66937
▁Sun	-9.6694
▁Division	-9.67041
▁highest	-9.67128
▁ma	-9.67196
▁speech	-9.67382
▁losing	-9.67508
▁places	-9.67519
hu	-9.67541
▁Hospital	-9.67573
▁confidence	-9.67766
10	-9.67795
▁Coast	-9.67844
▁drop	-9.67846
▁unique	-9.67865
▁difference	-9.67892
▁shop	-9.67969
▁fast	-9.67989
cu	-9.68046
▁http	-9.68177
▁link	-9.68301
▁Pat	-9.68323
▁believes	-9.68336
▁bid	-9.68343
▁Community	-9.68379
▁Indian	-9.68454
▁commitment	-9.68498
▁certainly	-9.68594
so	-9.68618
▁planned	-9.68626
ries	-9.6867
▁Colorado	-9.68677
▁Sen	-9.68688
▁Here	-9.68751
▁exchange	-9.68836
▁Dakota	-9.68919
▁below	-9.69005
▁homes	-9.69034
▁multiple	-9.69075
▁answer	-9.6908
▁contest	-9.69083
▁restaurant	-9.6931
fi	-9.69315
▁Peter	-9.69319
▁Air	-9.69377
▁d	-9.69382
ging	-9.69386
▁continues	-9.69395
▁confirmed	-9.69399
▁bus	-9.69415
▁Big	-9.69546
▁sit	-9.69557
▁upon	-9.69558
▁particular	-9.69642
▁survey	-9.69663
sa	-9.69672
▁push	-9.6971
▁Stadium	-9.69721
▁prevent	-9.69762
▁sort	-9.69963
▁search	-9.69995
mp	-9.70027
▁girl	-9.7005
▁missed	-9.70052
▁Ri	-9.70053
port	-9.70188
▁size	-9.70211
ji	-9.70287
▁natural	-9.70316
Q	-9.70467
▁Of	-9.70475
▁holding	-9.70533
▁putting	-9.70539
▁source	-9.70587
ding	-9.70601
▁Chi	-9.70619
▁female	-9.70819
▁Secretary	-9.70821
▁border	-9.7085
▁provides	-9.70925
▁Mac	-9.70936
▁Su	-9.70953
▁fifth	-9.71081
▁alleged	-9.71154
▁sex	-9.71205
▁missing	-9.71237
▁God	-9.71314
▁Under	-9.71324
▁possession	-9.71376
▁fresh	-9.71396
▁wait	-9.71427
▁eye	-9.71478
▁skills	-9.71587
▁supply	-9.71665
▁traditional	-9.71676
jo	-9.7172
▁original	-9.71725
▁seem	-9.71951
ett	-9.72086
▁seeing	-9.72098
▁character	-9.72226
▁items	-9.72287
ach	-9.7232
▁Jo	-9.7241
▁wouldn	-9.7243
▁Cal	-9.72457
▁programme	-9.72517
ward	-9.72631
▁sometimes	-9.72645
ther	-9.72664
▁Then	-9.72677
▁Supreme	-9.72696
▁rock	-9.7277
▁filed	-9.72932
▁deliver	-9.72954
▁Ru	-9.72977
uff	-9.73094
▁regional	-9.73104
▁Sal	-9.73176
Our	-9.7321
▁nice	-9.73379
▁display	-9.7339
ki	-9.73425
ren	-9.73459
▁di	-9.73519
▁hot	-9.73608
▁south	-9.73618
▁FBI	-9.73634
▁operation	-9.73651
▁dog	-9.73652
▁Lee	-9.73654
▁Ex	-9.73659
▁Mc	-9.73746
▁facing	-9.7383
▁options	-9.73855
qu	-9.7389
▁investors	-9.7391
right	-9.7391
▁located	-9.73943
▁boost	-9.74035
▁focused	-9.74042
▁target	-9.74079
▁honor	-9.74194
▁Ku	-9.74195
▁attend	-9.74207
▁mo	-9.74296
▁card	-9.74309
▁French	-9.74346
▁miles	-9.74347
▁model	-9.74403
▁Christian	-9.74406
▁learning	-9.74462
▁fully	-9.74519
fo	-9.74589
▁citizens	-9.74612
▁request	-9.74631
▁revealed	-9.74646
▁scheduled	-9.74665
▁explained	-9.74704
ual	-9.7472
tor	-9.74759
ES	-9.74767
▁enable	-9.74852
▁Although	-9.7486
▁concerned	-9.74949
▁owners	-9.75003
▁stock	-9.75042
▁looks	-9.7508
▁45	-9.75124
▁Series	-9.75178
tro	-9.75206
▁France	-9.75214
▁individuals	-9.75229
▁foot	-9.75238
▁About	-9.75241
▁Robert	-9.75324
mb	-9.75341
▁fighting	-9.75392
▁decades	-9.75419
▁concern	-9.75441
▁1,	-9.75478
▁Services	-9.7548
▁attacks	-9.75511
ani	-9.75592
▁necessary	-9.75657
▁Ne	-9.75681
▁Prime	-9.75701
fe	-9.75784
▁marijuana	-9.75825
▁simple	-9.76008
▁produce	-9.76036
ery	-9.76042
▁app	-9.76076
▁Education	-9.76161
▁accept	-9.76226
su	-9.7628
▁Northern	-9.763
▁£1	-9.76316
▁asking	-9.76346
▁scheme	-9.76422
▁squad	-9.76438
rie	-9.76469
gan	-9.76471
▁threat	-9.765
ned	-9.76515
▁debt	-9.76562
▁stated	-9.76607
ick	-9.76625
▁Cor	-9.76659
▁facility	-9.76669
▁Democrat	-9.76746
▁doubt	-9.76793
▁science	-9.76824
▁arrived	-9.76898
▁crash	-9.76934
▁Church	-9.77024
▁Another	-9.77043
▁green	-9.77051
▁Ni	-9.77057
▁En	-9.77066
▁believed	-9.77284
use	-9.77307
ev	-9.7732
▁style	-9.77359
▁location	-9.77415
ategorie	-9.77457
▁professor	-9.7752
▁Du	-9.77584
▁myself	-9.77594
▁winter	-9.7763
▁Island	-9.77663
▁twice	-9.77675
▁slow	-9.77683
▁Development	-9.77741
▁send	-9.77751
▁nominee	-9.77769
▁fuel	-9.77848
▁appear	-9.77854
▁civil	-9.77877
16	-9.77892
hy	-9.77924
▁physical	-9.7794
▁album	-9.77956
ising	-9.78038
▁Col	-9.78042
▁80	-9.78063
▁peace	-9.78091
▁responsible	-9.78112
▁limited	-9.78179
▁Vegas	-9.78253
▁stopped	-9.78266
▁option	-9.78288
▁abuse	-9.78324
▁farmers	-9.78334
▁expressed	-9.78338
▁Ki	-9.78432
▁related	-9.78459
▁reality	-9.785
▁managed	-9.78532
▁placed	-9.78567
ack	-9.78652
▁advance	-9.78688
▁90	-9.78716
▁rally	-9.78752
▁Las	-9.78812
eg	-9.78819
▁word	-9.78828
▁identified	-9.78975
▁cities	-9.79017
▁Those	-9.79024
▁ban	-9.7904
▁domestic	-9.79086
▁Year	-9.79107
▁modern	-9.7918
▁designed	-9.79186
▁posted	-9.79205
org	-9.79224
▁Grand	-9.79273
▁complex	-9.79275
▁Cubs	-9.79281
▁vehicles	-9.79313
▁affected	-9.79329
▁excited	-9.7937
ide	-9.79449
▁specific	-9.79476
▁piece	-9.79543
▁Joe	-9.79557
▁ho	-9.7956
▁r	-9.79593
-7	-9.79664
▁union	-9.79752
▁2010	-9.79777
▁quick	-9.79833
▁passing	-9.79877
▁blue	-9.79937
▁ten	-9.8001
▁Contact	-9.80041
▁Russian	-9.80061
▁carried	-9.80085
▁basis	-9.80181
▁thinking	-9.80205
▁Mosul	-9.8023
▁article	-9.80237
▁Foundation	-9.80245
▁Islamic	-9.80256
▁Ad	-9.80256
▁Post	-9.80269
▁suffered	-9.80278
▁wall	-9.80353
▁Pre	-9.80364
▁multi	-9.80373
▁fit	-9.80404
▁song	-9.80477
tan	-9.805
▁farm	-9.80587
▁Business	-9.80597
▁Over	-9.80648
▁creating	-9.8065
vis	-9.80665
▁dropped	-9.80682
win	-9.80703
art	-9.80796
ker	-9.80826
ably	-9.80856
▁victims	-9.80858
▁visitors	-9.80919
▁shared	-9.8098
-0	-9.80988
▁critical	-9.81006
▁definitely	-9.81014
▁Avenue	-9.81095
▁measure	-9.8114
chi	-9.81145
▁direction	-9.81149
▁language	-9.81336
tal	-9.8141
▁Seattle	-9.8142
▁Just	-9.81563
▁500	-9.8157
My	-9.8162
▁Pi	-9.81641
▁emergency	-9.81709
▁protection	-9.81719
▁launch	-9.81742
looking	-9.81743
▁equipment	-9.81807
▁showing	-9.81831
And	-9.81844
▁mission	-9.81856
▁direct	-9.82014
▁remaining	-9.82045
AN	-9.82054
▁solutions	-9.82148
▁limit	-9.82149
▁X	-9.8226
▁carry	-9.82345
▁insurance	-9.82489
▁miss	-9.82504
▁Fire	-9.82554
▁weather	-9.82586
▁2012	-9.82597
▁Andrew	-9.82609
▁Sp	-9.82617
▁hurt	-9.82638
▁activity	-9.82655
ations	-9.82763
-4	-9.82769
▁seek	-9.82819
▁Other	-9.82864
ments	-9.82875
▁1.	-9.82884
▁crisis	-9.82947
▁agree	-9.82948
▁Despite	-9.82995
▁figure	-9.83108
▁shots	-9.83121
▁Richard	-9.83238
▁gets	-9.83293
▁written	-9.83312
ng	-9.83323
▁Premier	-9.83435
▁paper	-9.83452
che	-9.83532
▁outcome	-9.83532
▁appreciate	-9.83535
▁notes	-9.83568
work	-9.83617
town	-9.83619
ug	-9.8367
vin	-9.83717
▁Western	-9.83723
▁touch	-9.83729
▁measures	-9.83733
▁writing	-9.83739
kin	-9.83779
▁wins	-9.83813
▁facilities	-9.8387
▁Matt	-9.83882
▁haven	-9.83883
▁Today	-9.83929
ving	-9.83974
▁presented	-9.83984
What	-9.8399
ung	-9.84004
med	-9.8404
▁Blue	-9.84072
▁sc	-9.84095
▁decide	-9.84116
ical	-9.84128
ver	-9.84213
izing	-9.84319
har	-9.84351
▁highly	-9.84386
ction	-9.84407
As	-9.84431
▁2013	-9.8446
40	-9.84477
▁boys	-9.84488
▁type	-9.84543
uck	-9.84595
▁existing	-9.84596
▁guy	-9.84675
iv	-9.84692
25	-9.84731
▁Jan	-9.84738
▁stuff	-9.84819
zi	-9.8488
nt	-9.84907
▁cap	-9.8491
15	-9.84931
▁aid	-9.84942
▁festival	-9.84986
▁mental	-9.85013
▁wish	-9.85043
▁becoming	-9.85065
▁hotel	-9.85078
▁registered	-9.85223
▁seemed	-9.85224
▁reasons	-9.85237
▁boy	-9.85246
ong	-9.85247
▁32	-9.85289
ep	-9.85294
▁200	-9.85336
str	-9.85371
ative	-9.85372
-2	-9.85435
▁Ke	-9.85519
▁serving	-9.85543
▁gives	-9.85644
▁mobile	-9.85675
▁meant	-9.85803
▁panel	-9.85812
▁brother	-9.85849
ple	-9.85864
▁primary	-9.85945
▁governor	-9.85992
▁newspaper	-9.86063
▁fellow	-9.86111
▁Sports	-9.86115
▁standing	-9.86181
▁Meanwhile	-9.86199
▁Wi	-9.86209
Z	-9.8628
ara	-9.86377
17	-9.8638
▁usually	-9.8646
▁Per	-9.86476
▁banks	-9.8648
▁bringing	-9.86536
▁chair	-9.86581
▁Vi	-9.86653
▁Championship	-9.86761
▁massive	-9.86808
▁welcome	-9.86899
▁aware	-9.86913
▁tight	-9.86991
▁setting	-9.87056
▁figures	-9.87086
▁path	-9.87088
board	-9.8712
▁2008	-9.87131
▁eventually	-9.87137
▁encourage	-9.87182
60	-9.87194
▁session	-9.87298
▁interested	-9.87306
ew	-9.87329
▁pitch	-9.87474
▁fan	-9.87495
▁mark	-9.87513
ct	-9.87608
▁Angeles	-9.87707
▁Army	-9.87742
▁veterans	-9.87746
aw	-9.8776
▁knowledge	-9.87933
▁vice	-9.87989
▁broke	-9.88017
if	-9.88067
▁systems	-9.88077
For	-9.88084
18	-9.88105
▁talent	-9.88116
▁prepared	-9.88172
▁responsibility	-9.88219
▁Will	-9.88223
▁partnership	-9.88264
▁strike	-9.88278
▁influence	-9.88295
▁Toronto	-9.88323
▁ruling	-9.88392
bar	-9.88405
fer	-9.8842
▁attended	-9.88475
▁den	-9.88535
ale	-9.88544
▁Mary	-9.88569
▁Good	-9.88617
▁champion	-9.88645
▁Sea	-9.88663
▁hits	-9.88692
ER	-9.88735
She	-9.88742
▁hundreds	-9.88756
▁strategy	-9.88756
▁aren	-9.88774
▁division	-9.88827
▁environmental	-9.88836
▁affect	-9.88846
▁gold	-9.88938
▁Ge	-9.88952
pp	-9.89023
▁transition	-9.89031
▁discuss	-9.89047
▁completely	-9.89176
▁Israel	-9.89185
▁artist	-9.8919
▁al	-9.89224
za	-9.89303
val	-9.89468
AC	-9.89494
▁active	-9.89582
▁Cha	-9.89604
▁$4	-9.89612
▁waiting	-9.89614
▁sea	-9.89626
▁pain	-9.89633
▁beautiful	-9.89682
▁Water	-9.89706
▁choose	-9.89735
▁holiday	-9.89769
tri	-9.89787
▁developed	-9.898
▁features	-9.89832
▁application	-9.89861
▁Steve	-9.89885
▁33	-9.89961
▁status	-9.8997
ec	-9.89991
▁Research	-9.89999
▁2015,	-9.90038
▁ch	-9.90045
▁parking	-9.90047
▁Sch	-9.90057
her	-9.90091
▁parts	-9.90108
ight	-9.90108
▁maybe	-9.90167
lie	-9.90351
▁defence	-9.90351
▁touchdowns	-9.90475
▁Cleveland	-9.90475
▁task	-9.90534
▁Story	-9.90541
▁Jackson	-9.90577
▁Men	-9.90592
▁enforcement	-9.90606
▁THE	-9.90615
▁Ministry	-9.90741
pping	-9.90777
▁please	-9.90779
▁Beach	-9.90846
▁drugs	-9.90847
ix	-9.90978
▁picked	-9.9102
▁decisions	-9.91078
▁Follow	-9.91168
▁Ya	-9.91204
▁stick	-9.91262
▁operating	-9.91278
▁Star	-9.91294
▁pulled	-9.9131
▁talks	-9.91319
my	-9.91334
▁effective	-9.91363
.4	-9.91433
▁signs	-9.91474
▁admitted	-9.91493
▁Mexico	-9.91573
▁2011	-9.91593
foot	-9.91606
▁accident	-9.91633
▁dark	-9.91635
▁heavy	-9.91652
▁born	-9.91792
▁illegal	-9.91993
▁killing	-9.92019
So	-9.92093
▁capacity	-9.92113
▁Dec	-9.92114
▁Ver	-9.92179
▁train	-9.92204
▁Class	-9.92254
▁shift	-9.92274
▁announcement	-9.92322
▁shown	-9.92325
▁Stories	-9.92333
▁nature	-9.92428
▁maintain	-9.92473
▁note	-9.92582
▁movie	-9.92661
▁Conference	-9.92767
▁Gar	-9.92833
ino	-9.92853
▁Nevada	-9.92856
▁proposal	-9.92932
▁arrest	-9.92964
▁watching	-9.9304
▁estate	-9.93158
▁healthy	-9.93186
▁Senior	-9.93255
RA	-9.9333
▁greater	-9.9334
▁Mi	-9.93355
▁stretch	-9.93382
▁Royal	-9.93399
▁taxes	-9.93435
▁customer	-9.93474
▁struck	-9.93528
▁Presse	-9.93546
▁throw	-9.93546
▁supported	-9.93564
oc	-9.93565
▁catch	-9.93565
▁Syria	-9.93706
▁keeping	-9.93804
▁perhaps	-9.93857
▁sport	-9.93897
▁separate	-9.9397
ita	-9.9399
▁collection	-9.93993
mal	-9.94
▁Their	-9.94068
▁German	-9.94233
▁discussion	-9.94276
▁learned	-9.94303
▁Associate	-9.94315
▁teachers	-9.94354
▁mayor	-9.9437
▁records	-9.94375
tu	-9.94406
▁exactly	-9.94414
▁church	-9.94435
▁promote	-9.94522
ible	-9.94534
▁Fi	-9.9457
.6	-9.94596
▁male	-9.94614
▁feature	-9.94644
▁inter	-9.94648
od	-9.94699
ari	-9.9472
don	-9.94728
▁respond	-9.94791
▁presence	-9.94795
▁Game	-9.94832
▁cars	-9.9487
▁picture	-9.9491
▁conduct	-9.94914
▁tackle	-9.94918
run	-9.9493
▁shares	-9.94935
▁laws	-9.94973
▁Institute	-9.94998
▁Ti	-9.95008
▁reading	-9.9501
▁solution	-9.95063
▁organizations	-9.95204
▁Bra	-9.95228
van	-9.95246
ock	-9.95303
▁disease	-9.95362
▁surprise	-9.95393
▁Force	-9.95399
▁coverage	-9.95467
▁warm	-9.95507
▁Germany	-9.95522
▁sister	-9.95582
▁concert	-9.95611
▁sentence	-9.95615
▁super	-9.95622
▁increasing	-9.95638
▁suspect	-9.95663
▁Jim	-9.95726
▁jail	-9.95784
▁Dar	-9.9585
▁suggested	-9.95899
▁secure	-9.95953
▁rule	-9.96004
ane	-9.96011
▁voter	-9.96043
▁Davis	-9.96069
▁actions	-9.96101
▁knows	-9.96103
wan	-9.96122
▁finance	-9.9621
▁Daniel	-9.96213
▁Rep	-9.96225
down	-9.96229
ious	-9.96239
ough	-9.96256
▁powerful	-9.96287
▁Miller	-9.96356
ING	-9.96377
▁established	-9.96419
▁finding	-9.96431
▁celebrate	-9.96517
▁approval	-9.96583
cher	-9.96588
EN	-9.96604
▁Also	-9.96629
▁UN	-9.96634
▁strength	-9.96726
.8	-9.9674
▁digital	-9.96754
▁Arizona	-9.96772
▁hasn	-9.96788
▁lines	-9.96793
▁Ham	-9.96823
▁ongoing	-9.96835
▁older	-9.9684
To	-9.96842
▁notice	-9.96855
▁directly	-9.96916
▁spring	-9.96955
▁dangerous	-9.97009
mar	-9.97023
▁standard	-9.97062
▁Fa	-9.97109
▁exercise	-9.9713
▁responded	-9.97147
▁nor	-9.97196
▁rain	-9.97253
▁amazing	-9.97395
lor	-9.97403
▁eyes	-9.97428
▁agencies	-9.97433
▁conflict	-9.9749
▁version	-9.97558
▁onto	-9.97559
▁suit	-9.9758
▁cool	-9.97611
▁degree	-9.97675
game	-9.97711
▁faced	-9.97735
▁Bro	-9.97805
▁Taylor	-9.97813
▁assist	-9.9784
▁screen	-9.97851
▁rose	-9.97893
▁Bi	-9.97915
▁sides	-9.97957
ill	-9.97962
▁favorite	-9.97998
pt	-9.98063
▁loved	-9.9808
▁ride	-9.98118
▁transfer	-9.98126
▁34	-9.98256
▁Wa	-9.98266
▁sitting	-9.98277
▁normal	-9.98281
▁hoping	-9.98357
▁allowing	-9.98384
▁eat	-9.98475
▁forecast	-9.98501
▁Women	-9.98588
▁Van	-9.98638
▁Kenya	-9.98647
▁basketball	-9.98675
▁village	-9.98718
▁ca	-9.98785
ige	-9.98819
▁photo	-9.98895
▁passes	-9.98896
▁tie	-9.98933
11	-9.98957
len	-9.98959
ff	-9.98968
▁fish	-9.99019
▁graduate	-9.99044
pr	-9.99047
▁recorded	-9.99087
▁earned	-9.99089
.1	-9.9913
▁Old	-9.99148
light	-9.99337
▁downtown	-9.99354
▁Paris	-9.99407
▁television	-9.99464
▁mostly	-9.99578
▁decade	-9.99606
▁opinion	-9.99624
ON	-9.99646
▁emails	-9.99649
▁negative	-9.99677
tz	-9.99781
▁k	-9.99846
ye	-9.99935
▁worse	-9.99989
▁Please	-10.0004
▁matches	-10.0007
Re	-10.0007
.7	-10.0014
bb	-10.0025
▁whom	-10.0025
▁wearing	-10.003
▁estimated	-10.0032
▁pop	-10.0037
▁Fe	-10.004
▁imp	-10.0043
tru	-10.0043
like	-10.0046
let	-10.0058
▁edge	-10.0063
mm	-10.0065
▁Iraq	-10.0065
▁gain	-10.0073
▁Tri	-10.0073
▁balance	-10.0079
▁urged	-10.0082
▁teacher	-10.0087
▁supporting	-10.0088
▁generation	-10.0088
▁denied	-10.0091
▁bigger	-10.0101
▁worst	-10.011
.3	-10.0114
▁36	-10.0114
▁Jack	-10.0115
cent	-10.0122
▁counter	-10.0125
▁shut	-10.0128
▁Ab	-10.0128
▁Long	-10.0131
▁Asia	-10.0133
cal	-10.0134
row	-10.0141
ants	-10.0143
lic	-10.0145
▁connection	-10.0146
gra	-10.0146
▁row	-10.0147
▁remained	-10.0159
▁commission	-10.0174
▁streets	-10.0174
▁spread	-10.0176
▁treat	-10.0179
▁Fund	-10.0181
▁Un	-10.0183
▁appears	-10.0195
ast	-10.0201
▁bond	-10.0206
▁Art	-10.0208
▁perform	-10.0214
IC	-10.0218
ook	-10.0218
▁allows	-10.0221
OR	-10.0224
ade	-10.0224
CA	-10.0232
oo	-10.0236
▁roll	-10.0239
▁Mon	-10.024
▁ideas	-10.024
long	-10.0245
▁Scottish	-10.0249
▁assistant	-10.0252
▁MP	-10.0252
▁clearly	-10.0262
▁waste	-10.0266
▁2015.	-10.0266
tion	-10.0267
▁Port	-10.0268
▁pipeline	-10.0275
▁Wilson	-10.0277
▁warned	-10.0279
American	-10.0279
▁songs	-10.0282
▁Je	-10.0283
▁route	-10.0287
▁faces	-10.0287
▁chances	-10.0288
▁plenty	-10.0291
▁selling	-10.0291
▁Mayor	-10.0295
▁sl	-10.0305
IS	-10.0306
▁debut	-10.0307
▁Judge	-10.0308
▁Like	-10.031
▁pace	-10.0314
▁drivers	-10.0323
▁material	-10.0325
▁failure	-10.0327
▁February	-10.0329
▁Am	-10.0334
▁Stephen	-10.0337
▁views	-10.0339
▁delivered	-10.0345
▁regarding	-10.0353
▁lived	-10.0354
▁writer	-10.0355
▁experienced	-10.0357
▁tied	-10.0361
▁resident	-10.0364
▁grew	-10.0368
▁Three	-10.0369
▁users	-10.0373
▁entered	-10.0374
uc	-10.0374
▁Arkansas	-10.0375
▁Executive	-10.0385
▁schedule	-10.0388
▁clients	-10.0393
▁names	-10.0394
ged	-10.0398
pen	-10.04
▁Land	-10.0409
▁sources	-10.0411
▁Head	-10.0418
▁Young	-10.042
▁Che	-10.0426
▁Great	-10.0433
SA	-10.0436
▁improved	-10.0443
▁Federal	-10.0444
▁advice	-10.0448
▁yourself	-10.0452
▁standards	-10.0456
▁easily	-10.0461
▁computer	-10.0465
ef	-10.0468
▁Alex	-10.0474
▁write	-10.0474
14	-10.0478
▁Open	-10.049
▁thanks	-10.049
▁rural	-10.0506
room	-10.0513
sha	-10.0515
▁legislation	-10.0516
▁produced	-10.0516
▁artists	-10.0521
▁color	-10.0528
▁Wall	-10.0532
▁retail	-10.0538
▁conducted	-10.054
cha	-10.0543
-5	-10.0545
▁importance	-10.0545
nes	-10.0547
-20	-10.0547
▁enter	-10.055
▁flow	-10.055
▁extremely	-10.0555
▁initiative	-10.0558
▁speaking	-10.0559
▁dollars	-10.0562
▁prove	-10.0564
▁allegations	-10.0576
▁competitive	-10.0577
▁Why	-10.0578
22	-10.0579
▁Illinois	-10.0586
▁Pe	-10.0588
▁happens	-10.0592
▁vision	-10.0597
▁confident	-10.0601
-6	-10.0604
▁prior	-10.0607
▁receiving	-10.0612
af	-10.0614
▁Mu	-10.0616
RE	-10.062
▁airport	-10.0621
▁Georgia	-10.0637
▁tickets	-10.0638
▁leg	-10.064
▁variety	-10.0641
▁Murray	-10.0642
▁Southern	-10.065
▁apartment	-10.0659
IN	-10.066
ound	-10.0668
air	-10.0668
▁2.	-10.0673
ik	-10.0676
IT	-10.0681
ku	-10.0687
je	-10.0687
▁Jay	-10.0689
▁determined	-10.0692
▁positions	-10.0693
▁hate	-10.0696
▁sites	-10.0696
▁Ch	-10.07
▁dream	-10.0702
▁immigration	-10.0704
▁Gold	-10.0706
ped	-10.0707
pl	-10.0711
▁developing	-10.0711
▁paying	-10.0718
▁bottom	-10.0723
▁larger	-10.0724
19	-10.0732
cho	-10.074
▁document	-10.074
▁books	-10.0743
▁Rob	-10.0743
▁Kelly	-10.0749
▁ice	-10.075
▁Field	-10.0752
▁require	-10.0755
▁Life	-10.0762
▁prime	-10.0769
▁alternative	-10.0773
▁east	-10.0774
water	-10.0776
▁experts	-10.0779
▁seconds	-10.078
▁charity	-10.0784
▁2009	-10.0792
▁Barack	-10.0793
35	-10.0798
▁ceremony	-10.0798
▁Mad	-10.0801
og	-10.082
▁loan	-10.0824
AL	-10.0833
▁conversation	-10.0848
▁fired	-10.0865
▁baby	-10.0868
▁se	-10.0879
▁understanding	-10.0887
▁wind	-10.0889
▁classes	-10.0898
▁Sir	-10.0899
gen	-10.0902
▁industrial	-10.0906
▁j	-10.0912
▁rising	-10.0914
▁prepare	-10.0915
cor	-10.0915
ington	-10.0917
play	-10.0929
ability	-10.093
▁Charlotte	-10.0934
▁freshman	-10.0936
▁academic	-10.0938
ath	-10.0943
▁ship	-10.0944
▁favor	-10.0949
net	-10.0959
▁Iraqi	-10.096
▁documents	-10.0961
▁veteran	-10.0963
▁hair	-10.0972
▁flat	-10.0975
▁sought	-10.0979
▁telling	-10.098
▁alcohol	-10.0983
▁dinner	-10.0985
▁Care	-10.0993
▁nearby	-10.0993
▁radio	-10.0997
▁Bu	-10.0999
▁units	-10.1
▁feels	-10.1008
▁brain	-10.1012
▁cold	-10.102
▁happening	-10.1026
▁purpose	-10.1033
▁captain	-10.1053
ue	-10.1054
▁unable	-10.1055
▁surrounding	-10.1072
▁Sheriff	-10.1073
▁awareness	-10.1078
▁38	-10.1082
▁secret	-10.1087
▁journey	-10.1089
not	-10.1089
▁achieve	-10.1095
▁factors	-10.11
▁combined	-10.1102
▁Middle	-10.1103
▁walking	-10.1104
ble	-10.1105
▁steps	-10.1107
▁discovered	-10.1107
▁weight	-10.1108
▁gr	-10.1108
▁closing	-10.1109
▁manage	-10.1109
▁Little	-10.1109
ken	-10.111
▁ordered	-10.1111
▁truly	-10.1111
▁2018	-10.1112
▁Australian	-10.1126
▁Tim	-10.1126
▁reporters	-10.1132
▁corporate	-10.1135
▁truck	-10.1138
▁gap	-10.1141
▁warning	-10.1145
▁Commissioner	-10.1147
▁treated	-10.1149
hand	-10.1156
▁cup	-10.1158
state	-10.1162
LE	-10.1163
▁master	-10.1163
des	-10.1167
▁presidency	-10.1167
▁Gra	-10.1169
▁initial	-10.1173
▁Te	-10.1174
▁Kevin	-10.1177
▁Local	-10.1182
▁joint	-10.1188
▁closer	-10.119
ez	-10.119
▁Va	-10.1191
▁Medical	-10.1192
ile	-10.1194
▁mix	-10.1196
▁Officer	-10.1197
▁largely	-10.1205
mit	-10.1206
▁Jordan	-10.1207
▁Security	-10.1209
▁relations	-10.1209
▁trouble	-10.1214
▁roads	-10.1217
▁arm	-10.1219
▁Nigeria	-10.1225
▁rushing	-10.123
▁motor	-10.1243
▁fill	-10.1246
▁partners	-10.1247
▁hall	-10.1247
▁refused	-10.1247
▁institutions	-10.1249
▁century	-10.1263
▁starts	-10.1266
▁conservative	-10.1266
▁Power	-10.1269
▁solid	-10.1284
▁2014,	-10.1285
▁$5	-10.1286
dale	-10.129
▁Direct	-10.1294
▁Football	-10.1295
▁west	-10.1296
▁province	-10.1297
No	-10.1302
▁spirit	-10.1308
▁Indians	-10.1309
▁seed	-10.1315
▁bowl	-10.1318
▁Week	-10.132
▁Tickets	-10.1322
▁expand	-10.1323
▁allegedly	-10.133
cer	-10.133
▁expansion	-10.1331
▁sophomore	-10.1333
SU	-10.1333
▁marketing	-10.1345
▁pointed	-10.1347
▁reflect	-10.1348
▁mass	-10.1354
▁background	-10.1356
▁storm	-10.1357
70	-10.1358
▁tonight	-10.1358
▁expectations	-10.136
▁pull	-10.1364
▁Ju	-10.1368
▁sixth	-10.137
▁Dublin	-10.1371
▁Anthony	-10.1373
▁Mrs	-10.1376
▁Mountain	-10.1382
yn	-10.1386
▁buildings	-10.139
▁profit	-10.1394
▁wine	-10.1394
80	-10.1408
▁Inter	-10.1414
▁nuclear	-10.1418
US	-10.1419
▁Food	-10.1419
▁interesting	-10.1421
▁determine	-10.1434
ash	-10.1435
▁Clark	-10.1436
ory	-10.1439
▁plus	-10.1443
▁meaning	-10.1447
bit	-10.1447
▁Attorney	-10.1454
rate	-10.1461
▁Your	-10.1462
▁adults	-10.1465
cl	-10.1471
▁42	-10.1473
av	-10.1483
▁37	-10.1487
press	-10.1487
12	-10.1487
▁changing	-10.1498
5,000	-10.1498
13	-10.1504
▁Frank	-10.1507
▁Japanese	-10.1515
▁Award	-10.1518
law	-10.1525
▁trading	-10.1526
▁politicians	-10.1526
gar	-10.1528
▁freedom	-10.1529
▁Par	-10.1531
▁technical	-10.1542
▁transport	-10.1547
ator	-10.155
▁appearance	-10.1553
cing	-10.1557
▁Ken	-10.1557
more	-10.1561
▁object	-10.1562
▁actual	-10.1567
▁Virginia	-10.1569
▁Fort	-10.1576
▁Min	-10.1577
▁Daily	-10.1579
▁declined	-10.1579
RI	-10.158
▁rent	-10.1588
ric	-10.1593
ola	-10.1595
▁herself	-10.1602
▁Mor	-10.1604
▁broken	-10.1607
ris	-10.1608
▁cultural	-10.1609
▁NFL	-10.1609
▁Energy	-10.1612
▁text	-10.1613
▁Bal	-10.1616
SE	-10.1623
▁grand	-10.1623
▁supposed	-10.1624
▁Team	-10.1631
▁Free	-10.1632
ette	-10.1632
dis	-10.1637
▁whatever	-10.1638
▁apply	-10.1648
isation	-10.165
ending	-10.1658
▁2,	-10.1659
berg	-10.166
▁Matthew	-10.166
▁Ten	-10.1661
▁patient	-10.1664
duct	-10.1666
▁correct	-10.1669
▁Cu	-10.167
▁Jewish	-10.1676
▁introduced	-10.168
yo	-10.1684
▁bought	-10.169
▁grant	-10.1692
amp	-10.1697
▁49	-10.1703
▁lawsuit	-10.1707
▁accounts	-10.1708
▁earn	-10.1708
▁boat	-10.1714
▁fashion	-10.1716
▁li	-10.1719
▁Mer	-10.1723
▁flag	-10.1726
▁alongside	-10.1727
▁chain	-10.1727
unt	-10.1728
45	-10.174
▁Queen	-10.1741
ball	-10.1749
▁Brian	-10.1751
▁compete	-10.1752
▁Photograph	-10.176
▁rep	-10.1767
▁represent	-10.1771
car	-10.1772
TA	-10.1773
▁famous	-10.1776
▁Instead	-10.1778
▁volunteer	-10.1785
wo	-10.1787
▁seats	-10.1791
▁wear	-10.1792
▁Kar	-10.1794
▁Management	-10.1797
▁sat	-10.1797
▁3.	-10.1805
▁Though	-10.1807
!”	-10.1809
▁Lewis	-10.1816
▁garden	-10.1823
▁Nick	-10.1823
▁extended	-10.1831
dle	-10.1832
▁receiver	-10.1835
tur	-10.1837
▁duty	-10.1845
▁van	-10.1846
▁opponent	-10.1847
▁Pan	-10.1849
-10	-10.1851
▁ticket	-10.1855
▁Anderson	-10.1855
▁basic	-10.1859
▁2016,	-10.186
ib	-10.1868
▁ballots	-10.1869
▁CA	-10.187
top	-10.187
▁bench	-10.1871
▁bridge	-10.1872
▁contributed	-10.1874
▁occurred	-10.1875
▁trail	-10.1875
AR	-10.1875
ology	-10.1878
hill	-10.1879
▁rich	-10.1883
pre	-10.1883
▁Four	-10.1884
▁coaches	-10.1889
▁stood	-10.1891
▁studies	-10.19
▁historic	-10.1902
▁gender	-10.1906
▁exciting	-10.1907
▁ski	-10.1907
▁scale	-10.191
ura	-10.1922
http	-10.1929
CC	-10.1934
▁Project	-10.1936
▁structure	-10.1936
▁stores	-10.1939
▁impressive	-10.1943
▁Eric	-10.1966
▁authority	-10.1966
▁opponents	-10.1972
▁consecutive	-10.1973
▁risks	-10.1978
▁Tu	-10.1978
▁Hol	-10.1979
▁meetings	-10.1986
▁Regional	-10.199
▁Syrian	-10.1993
▁shape	-10.2
▁identify	-10.2003
high	-10.2004
▁dollar	-10.2009
▁properties	-10.2011
Account	-10.2012
▁younger	-10.2013
▁knee	-10.2016
▁animals	-10.2021
▁draft	-10.2023
▁print	-10.2025
▁everybody	-10.2027
▁referendum	-10.2028
▁bo	-10.2031
▁tend	-10.2032
▁Bur	-10.2033
ition	-10.2035
▁Real	-10.2035
ked	-10.2036
▁promised	-10.204
▁concept	-10.2042
▁interests	-10.2043
die	-10.2043
▁jury	-10.2043
▁bi	-10.2045
▁Gi	-10.2047
▁boss	-10.205
▁appropriate	-10.2053
▁Parliament	-10.2055
▁smaller	-10.2057
▁island	-10.2064
▁Social	-10.2073
▁em	-10.2075
▁William	-10.2081
33	-10.2081
▁GOP	-10.2087
▁wave	-10.2094
▁soft	-10.2094
▁lawyer	-10.2096
can	-10.2096
▁smoke	-10.2104
▁fraud	-10.2107
▁retired	-10.2109
▁Sta	-10.2116
▁harm	-10.2117
▁2017.	-10.2118
▁Editor	-10.2118
▁Joseph	-10.212
▁values	-10.212
▁listen	-10.2121
▁performed	-10.2123
▁Bell	-10.2126
▁image	-10.2133
▁trick	-10.2135
▁Super	-10.2145
▁pen	-10.2151
▁photos	-10.2153
▁corruption	-10.2154
▁dedicated	-10.2157
▁assets	-10.2159
▁Sept	-10.2164
ala	-10.2165
▁Ball	-10.2166
▁trend	-10.217
gh	-10.217
▁northern	-10.2172
▁enjoyed	-10.2173
▁Global	-10.2174
▁snow	-10.2176
▁handle	-10.2176
▁41	-10.2177
list	-10.2178
▁easier	-10.2186
eng	-10.2193
▁sleep	-10.2199
▁Dallas	-10.2201
▁Wales	-10.221
PA	-10.2224
▁applications	-10.2227
▁2016.	-10.2228
ama	-10.2229
par	-10.2231
▁truth	-10.2235
▁Festival	-10.2245
News	-10.2248
▁Adam	-10.2248
ju	-10.2249
▁participate	-10.226
▁smart	-10.2262
▁stress	-10.2263
▁petition	-10.2269
24	-10.227
▁tradition	-10.227
ration	-10.2271
cy	-10.2271
▁na	-10.2273
▁Society	-10.2274
:00	-10.2275
▁Science	-10.2276
▁blow	-10.228
▁Media	-10.2283
▁bed	-10.2289
▁thank	-10.2292
▁declared	-10.2294
05	-10.2296
▁Ross	-10.2301
▁Ali	-10.2306
▁Sha	-10.2307
mes	-10.2307
▁percentage	-10.2311
wing	-10.2312
▁involving	-10.2315
01	-10.2317
ED	-10.2317
ov	-10.2318
▁houses	-10.232
▁Human	-10.2327
▁pushed	-10.2329
▁delivery	-10.233
▁Link	-10.2336
▁considering	-10.2345
▁Academy	-10.2345
▁tomorrow	-10.2345
▁minor	-10.2348
▁heat	-10.2348
▁crimes	-10.2355
▁Content	-10.2355
▁Before	-10.236
▁cat	-10.2361
▁analysis	-10.237
▁Bob	-10.2372
▁Boston	-10.2373
▁giant	-10.2382
▁TD	-10.2392
▁protesters	-10.2398
▁Cook	-10.2399
▁bright	-10.2408
▁pleased	-10.2411
▁fla	-10.2414
▁Drive	-10.2415
▁Farm	-10.242
▁highlights	-10.242
q	-10.2423
▁kill	-10.2424
▁personnel	-10.2433
▁assistance	-10.2435
tter	-10.2441
▁listed	-10.2444
▁invited	-10.2449
▁Test	-10.245
ox	-10.245
▁losses	-10.2452
▁10-	-10.2452
▁therefore	-10.2459
▁golf	-10.247
▁Yet	-10.2471
▁ourselves	-10.2474
▁48	-10.2474
▁playoffs	-10.2474
▁soldiers	-10.2476
▁playoff	-10.2478
▁filled	-10.2484
▁Because	-10.2486
▁Children	-10.249
▁Ltd	-10.2491
▁repair	-10.2492
ray	-10.2496
▁Bre	-10.2497
ese	-10.25
▁replace	-10.2505
▁Vice	-10.2506
▁visited	-10.2507
▁Agency	-10.2514
▁deputy	-10.2516
▁carries	-10.2518
▁heading	-10.253
▁selection	-10.2533
▁brings	-10.2535
▁jump	-10.2537
▁Th	-10.2537
▁turning	-10.2545
▁Kentucky	-10.2551
oon	-10.2552
▁covered	-10.2554
▁soccer	-10.2554
▁reporting	-10.2554
▁Out	-10.2554
44	-10.2556
▁awards	-10.2557
▁sun	-10.256
▁breaking	-10.2561
▁struggling	-10.2564
▁owned	-10.2569
▁Show	-10.257
els	-10.2573
▁democracy	-10.2577
▁locations	-10.2578
▁comfortable	-10.2581
▁Em	-10.2584
▁native	-10.2585
▁talked	-10.2588
▁Hi	-10.2594
▁Harris	-10.2605
▁Eagles	-10.2607
▁drink	-10.2608
▁FA	-10.2609
▁Let	-10.2612
▁par	-10.2613
▁threw	-10.2617
▁Panthers	-10.2624
▁marriage	-10.2627
ok	-10.2631
▁300	-10.2641
▁craft	-10.2642
▁Pennsylvania	-10.2642
▁Best	-10.2643
▁minimum	-10.2645
▁Tour	-10.2646
▁Corp	-10.2647
▁walked	-10.2648
are	-10.2649
▁Corporation	-10.265
▁troops	-10.265
▁reduced	-10.2651
90	-10.2652
▁Who	-10.2664
▁creative	-10.2668
▁reform	-10.267
▁consumers	-10.2672
▁behalf	-10.2673
view	-10.2681
ets	-10.2683
▁/	-10.2689
▁Highway	-10.269
▁approximately	-10.2693
▁electronic	-10.2693
fu	-10.2695
▁assists	-10.2699
nie	-10.2706
▁removed	-10.2707
▁afford	-10.2709
place	-10.271
▁manufacturing	-10.2711
▁phase	-10.2711
war	-10.2711
▁gift	-10.2712
▁weren	-10.2713
▁Authority	-10.2713
hop	-10.2714
▁currency	-10.2718
07	-10.2721
▁birth	-10.2724
▁AP	-10.2727
▁effects	-10.2729
▁employment	-10.273
▁excellent	-10.2739
▁identity	-10.2739
▁pet	-10.2739
▁decline	-10.2741
▁requires	-10.2744
▁Yorkshire	-10.2745
▁Work	-10.2747
▁para	-10.2747
▁immediate	-10.2748
ich	-10.2749
▁desire	-10.2749
ect	-10.275
▁doctor	-10.2751
▁numerous	-10.2757
mate	-10.2757
yer	-10.2757
▁familiar	-10.2762
ium	-10.2763
mark	-10.2764
▁software	-10.2767
▁helps	-10.2767
Site	-10.2768
act	-10.2769
▁Call	-10.277
▁Assembly	-10.2777
▁electoral	-10.2777
▁Steven	-10.2777
▁instance	-10.2785
▁accepted	-10.2786
▁75	-10.2791
▁register	-10.2801
▁cr	-10.2805
▁millions	-10.2807
▁busy	-10.2809
ella	-10.281
▁Main	-10.2811
▁feed	-10.2814
▁judges	-10.2819
▁Arts	-10.2824
eb	-10.2824
▁shopping	-10.2825
▁returning	-10.2828
▁internet	-10.2829
lly	-10.2832
77	-10.2835
vers	-10.2836
2016	-10.2842
ax	-10.2843
▁Michigan	-10.2844
▁square	-10.2844
,500	-10.2848
election	-10.2849
fl	-10.2854
▁absolutely	-10.2856
▁volunteers	-10.2857
▁informed	-10.2858
bury	-10.2863
▁advanced	-10.2865
▁pieces	-10.2866
▁association	-10.2867
▁bike	-10.2868
ming	-10.2874
▁polling	-10.2881
▁grade	-10.2886
rk	-10.2887
att	-10.2887
▁payment	-10.2896
▁rival	-10.2901
▁bag	-10.2903
▁raising	-10.2904
▁continuing	-10.2912
▁rare	-10.2912
▁Staff	-10.2913
▁Jeff	-10.2914
▁dies	-10.2918
▁suffering	-10.2922
▁Once	-10.2925
bin	-10.2925
▁Summit	-10.2927
▁Speaking	-10.2932
ress	-10.2934
▁leaves	-10.2935
▁wood	-10.2936
▁pool	-10.2937
▁Cross	-10.2944
75	-10.2955
▁headed	-10.2963
▁singer	-10.2985
▁amid	-10.2987
ttle	-10.299
cul	-10.299
▁core	-10.2997
▁visiting	-10.3003
▁awarded	-10.3005
▁warrant	-10.3007
▁Ed	-10.3008
Release	-10.3008
▁adult	-10.3009
▁Partner	-10.3017
▁coffee	-10.3019
round	-10.3019
▁foundation	-10.3025
▁wild	-10.3026
▁volle	-10.3027
nan	-10.3031
▁mine	-10.304
class	-10.3041
Ma	-10.3045
▁Rose	-10.3045
▁cloud	-10.3046
▁consumer	-10.3056
ob	-10.3056
▁Live	-10.3061
▁lo	-10.3064
▁1,000	-10.3066
▁hosted	-10.3069
ified	-10.3077
▁possibility	-10.3077
▁grown	-10.3078
▁crucial	-10.308
ins	-10.3082
▁faith	-10.3085
▁Well	-10.3088
▁featured	-10.309
lam	-10.3091
34	-10.3095
▁margin	-10.3095
cc	-10.3097
▁carrying	-10.31
▁extend	-10.3102
▁sweet	-10.3106
▁flight	-10.3107
▁willing	-10.3107
▁increasingly	-10.311
▁lay	-10.3111
21	-10.3118
▁practices	-10.3119
form	-10.312
▁$7	-10.3122
▁Korea	-10.3133
EC	-10.3134
▁devices	-10.3139
gin	-10.314
▁crew	-10.3141
▁Dis	-10.3142
▁fees	-10.3144
nce	-10.3147
▁discussed	-10.3151
▁fix	-10.3152
month	-10.3154
▁Music	-10.3157
▁Sanders	-10.3172
▁Among	-10.3174
26	-10.318
▁65	-10.3189
▁55	-10.3189
▁II	-10.319
kar	-10.3198
but	-10.3202
ient	-10.321
▁seriously	-10.3214
ks	-10.3215
▁wonderful	-10.3216
▁weapons	-10.322
23	-10.3223
▁function	-10.3223
▁argued	-10.3224
▁stadium	-10.3226
▁encouraged	-10.3228
32	-10.3229
▁possibly	-10.3229
▁regulations	-10.323
▁neighborhood	-10.323
ome	-10.3237
▁Zealand	-10.3237
▁Cat	-10.3237
Language	-10.3248
▁2014.	-10.3252
iti	-10.3256
▁reaction	-10.3259
▁otherwise	-10.3259
▁kitchen	-10.3261
lock	-10.3261
qua	-10.3262
▁outstanding	-10.3264
rick	-10.3266
-12	-10.3274
▁Allen	-10.3274
▁Messen	-10.3275
▁cuts	-10.3275
▁upcoming	-10.3281
▁Za	-10.3287
▁connected	-10.3288
▁circumstances	-10.3288
▁Gov	-10.3296
▁Former	-10.3296
▁po	-10.3296
ose	-10.3297
uring	-10.3298
▁exit	-10.3299
▁musical	-10.3301
▁races	-10.3303
▁IS	-10.3309
▁counties	-10.3327
▁window	-10.333
▁ob	-10.3334
▁exhibition	-10.3335
▁initially	-10.3336
▁Nations	-10.3343
▁Fox	-10.3347
▁Jason	-10.3347
▁faculty	-10.3348
▁3-	-10.3349
▁Sky	-10.3349
ral	-10.335
▁falling	-10.3351
▁Bridge	-10.3353
29	-10.3354
▁priority	-10.3354
▁44	-10.3358
▁Region	-10.3361
.9	-10.3361
▁ruled	-10.3363
▁equal	-10.3364
▁matters	-10.3365
▁favour	-10.3365
▁surface	-10.337
▁Sub	-10.3373
▁aimed	-10.3374
At	-10.3375
▁mention	-10.3377
▁taste	-10.3379
▁stands	-10.3379
▁Still	-10.3382
▁39	-10.3389
▁bodies	-10.3392
▁distance	-10.3392
▁Craig	-10.3393
▁agenda	-10.34
▁worried	-10.3402
log	-10.3404
▁strategic	-10.3408
▁Area	-10.3408
rin	-10.3409
lit	-10.3412
ini	-10.3421
▁teaching	-10.3422
▁Date	-10.3423
aff	-10.3424
▁animal	-10.3424
▁Students	-10.3427
▁Hotel	-10.3428
▁Jr	-10.3428
▁package	-10.3428
▁appointed	-10.3431
▁Denver	-10.3436
AT	-10.3443
All	-10.3443
▁associated	-10.3443
▁upset	-10.3459
▁motion	-10.3464
▁tree	-10.3465
▁Hamilton	-10.3467
half	-10.3468
▁Fair	-10.3479
▁streak	-10.3482
▁43	-10.3493
▁Miss	-10.3497
▁Kansas	-10.351
▁Josh	-10.351
▁Nor	-10.3511
▁port	-10.3512
▁explore	-10.3518
▁CO	-10.3519
▁perspective	-10.3521
▁sugar	-10.3521
▁Financial	-10.3532
▁Santa	-10.3537
▁convicted	-10.3538
▁ro	-10.354
▁fruit	-10.354
▁Ste	-10.3542
▁guests	-10.3542
gate	-10.3544
table	-10.3545
firm	-10.3546
▁Archive	-10.355
▁explain	-10.3558
pan	-10.3558
▁moments	-10.356
▁file	-10.3561
55	-10.3563
▁£2	-10.3563
stone	-10.3571
mail	-10.3573
MA	-10.3574
38	-10.3579
▁participants	-10.3583
▁i	-10.3584
▁resolution	-10.3587
▁Up	-10.3589
▁Where	-10.3591
▁signal	-10.3596
▁complaint	-10.3601
▁Muslim	-10.3604
▁ultimately	-10.3608
iz	-10.3608
▁Asian	-10.3611
▁danger	-10.3619
▁Turkey	-10.3624
▁armed	-10.3624
▁Each	-10.3629
▁Ram	-10.3635
▁Pen	-10.364
▁Night	-10.3643
ET	-10.3644
▁broad	-10.3645
▁severe	-10.3646
ou	-10.3647
▁improving	-10.365
▁selected	-10.3651
09	-10.3652
lay	-10.3652
▁Kim	-10.3658
▁religious	-10.366
▁Chairman	-10.3662
▁gathered	-10.3667
▁dogs	-10.3671
▁remove	-10.3673
04	-10.3673
▁suicide	-10.3674
lon	-10.3676
▁ST	-10.368
nu	-10.3681
▁Charles	-10.3689
▁Ban	-10.3693
▁vital	-10.3693
free	-10.3696
With	-10.3697
▁era	-10.3697
▁factor	-10.3698
▁plane	-10.3702
▁scandal	-10.3702
▁investigating	-10.3705
worth	-10.3706
▁Lady	-10.3708
▁stolen	-10.3709
▁causing	-10.3711
ston	-10.3713
NA	-10.3714
▁river	-10.3714
million	-10.3714
▁plea	-10.3714
▁encounter	-10.3716
▁fr	-10.3716
▁doctors	-10.372
CH	-10.3722
shi	-10.3723
▁coal	-10.3733
▁Every	-10.3734
▁Shi	-10.3741
▁slightly	-10.3742
▁experiences	-10.3744
tom	-10.3745
▁Down	-10.3746
gle	-10.3749
az	-10.3755
▁announce	-10.3756
▁Tony	-10.3757
ering	-10.3759
rr	-10.3762
▁proved	-10.3769
minute	-10.3771
▁Queensland	-10.3773
▁watched	-10.3783
▁intended	-10.3788
▁ill	-10.3789
▁recovery	-10.3792
▁materials	-10.3793
ign	-10.3797
▁pleaded	-10.3799
ied	-10.3802
▁fly	-10.3803
▁doors	-10.3806
▁employee	-10.3807
▁emotional	-10.3812
▁Capital	-10.3813
illa	-10.3814
ano	-10.3815
▁trees	-10.3815
▁expensive	-10.3821
▁granted	-10.3823
▁Special	-10.3827
▁Tigers	-10.3828
▁bomb	-10.3828
▁stake	-10.3837
▁acting	-10.3841
▁attempts	-10.3843
▁lights	-10.3846
-9	-10.3853
▁cards	-10.3857
▁forget	-10.3858
▁2000	-10.3858
▁intention	-10.3864
▁crack	-10.3866
▁Penn	-10.3866
▁improvement	-10.387
▁Houston	-10.387
▁prize	-10.387
▁potentially	-10.387
▁vs	-10.3871
▁4.	-10.3873
▁Trust	-10.3877
▁registration	-10.3878
▁protected	-10.3878
▁Gary	-10.3887
▁electric	-10.3888
▁code	-10.3888
▁Fo	-10.389
▁Key	-10.3891
▁classic	-10.3895
tel	-10.3897
▁obviously	-10.3898
gue	-10.3904
▁Cam	-10.3908
▁Earlier	-10.391
▁memory	-10.3911
▁dry	-10.3916
▁Journal	-10.3917
▁Si	-10.3918
▁immigrants	-10.3918
Co	-10.392
▁assessment	-10.392
quarter	-10.3925
▁$6	-10.3925
▁shock	-10.3929
▁surprised	-10.3935
▁Qu	-10.3939
47	-10.3939
hour	-10.3942
▁leads	-10.3942
▁skin	-10.3943
▁passion	-10.3943
▁coast	-10.3946
▁Coach	-10.3948
▁Patrick	-10.3948
▁Ag	-10.3952
▁du	-10.3952
▁requirements	-10.3956
▁Forest	-10.3961
▁license	-10.3967
▁Deputy	-10.3968
era	-10.3968
season	-10.3969
▁contribute	-10.3976
tern	-10.3982
▁parent	-10.3983
load	-10.3983
▁Tre	-10.3983
▁ranked	-10.3985
related	-10.3989
▁attempted	-10.3992
▁Cre	-10.3992
▁dad	-10.3993
▁challenging	-10.3994
▁Pacific	-10.3995
▁false	-10.3997
▁manner	-10.3997
▁criticism	-10.3997
▁handed	-10.3998
▁managing	-10.3999
▁surgery	-10.4003
ates	-10.4007
▁Top	-10.4012
▁venue	-10.4015
▁married	-10.4017
del	-10.4023
▁promise	-10.4026
08	-10.403
▁clubs	-10.4032
▁behavior	-10.4037
▁sight	-10.404
▁wake	-10.4041
▁celebration	-10.4042
rain	-10.4048
▁affordable	-10.4049
▁founder	-10.405
▁Information	-10.4052
▁hosts	-10.4054
▁Back	-10.4057
▁pension	-10.4064
▁Bon	-10.4068
▁Exchange	-10.407
under	-10.4071
▁USA	-10.4071
▁apart	-10.4071
▁spokeswoman	-10.4072
▁dealing	-10.4075
DA	-10.4075
▁presentation	-10.4076
▁Ford	-10.4077
▁fiscal	-10.4081
▁threatened	-10.4083
lum	-10.4091
▁ties	-10.4093
▁buying	-10.4095
▁Photo	-10.4097
▁PM	-10.4104
▁split	-10.4105
▁Simon	-10.411
▁amendment	-10.4113
▁struggle	-10.4114
▁favourite	-10.4115
▁Dave	-10.4117
▁deals	-10.4118
▁lunch	-10.4122
▁fantastic	-10.4125
36	-10.4128
ski	-10.413
▁select	-10.4133
▁hat	-10.4136
▁representatives	-10.4137
▁trans	-10.414
▁46	-10.414
▁reference	-10.4142
▁pan	-10.4142
spect	-10.4152
▁deficit	-10.416
▁Ash	-10.4161
▁2007	-10.4162
Character	-10.4163
▁inspired	-10.4165
▁o	-10.4168
hal	-10.417
▁communication	-10.4171
▁driven	-10.4179
▁Wil	-10.4188
▁aggressive	-10.419
▁behaviour	-10.4193
cri	-10.4194
din	-10.4197
TV	-10.4197
▁performances	-10.42
▁Theatre	-10.4202
▁Louis	-10.4207
▁ring	-10.4215
▁dispute	-10.4217
▁begins	-10.4222
▁Tennessee	-10.4223
▁glass	-10.4227
▁offices	-10.423
31	-10.4234
▁intelligence	-10.4234
▁suggest	-10.4235
▁characters	-10.4235
▁52	-10.4235
pped	-10.4236
▁Network	-10.4241
▁2006	-10.4247
▁payments	-10.425
ians	-10.4252
ram	-10.4254
▁Comey	-10.426
ungen	-10.4262
▁Student	-10.4272
▁Moore	-10.4275
ute	-10.4277
▁Plan	-10.4282
▁Second	-10.4284
▁Pakistan	-10.4286
▁App	-10.4296
gent	-10.43
▁Far	-10.4301
▁Liverpool	-10.4303
shire	-10.4304
▁Affairs	-10.4306
▁struggled	-10.4306
gel	-10.4306
try	-10.4307
fully	-10.4307
▁subscriber	-10.4315
▁generally	-10.4317
49	-10.4317
▁kid	-10.4318
▁cheer	-10.4319
AM	-10.432
▁imagine	-10.4321
▁vulnerable	-10.4321
▁monitor	-10.4323
▁Celtic	-10.4327
▁Time	-10.4328
▁Bitte	-10.4329
▁Labour	-10.433
▁menu	-10.4336
▁novel	-10.4342
▁Justin	-10.4345
▁sad	-10.4345
▁Bas	-10.4347
▁Carl	-10.4352
▁representative	-10.4355
▁beer	-10.4356
▁flood	-10.4356
SC	-10.4362
gn	-10.4364
▁editor	-10.4365
cur	-10.4366
▁pot	-10.4369
▁pa	-10.437
▁bottle	-10.4373
▁hier	-10.4376
▁suspended	-10.438
ps	-10.4384
▁seventh	-10.4387
▁opposed	-10.4388
▁Ren	-10.4394
ched	-10.4396
▁Veterans	-10.4397
▁bear	-10.4398
▁Point	-10.4402
▁fee	-10.4406
▁brief	-10.4409
▁none	-10.441
IL	-10.441
▁mail	-10.4416
▁represents	-10.4418
▁powered	-10.4423
▁cutting	-10.4425
▁effectively	-10.4429
▁Ottawa	-10.443
Tips	-10.4432
▁die	-10.4435
style	-10.4439
▁tea	-10.444
▁mar	-10.4443
▁meat	-10.4444
▁reportedly	-10.4447
late	-10.4448
▁southern	-10.4451
▁End	-10.4452
▁plants	-10.4452
▁urban	-10.4457
mu	-10.4458
▁BBC	-10.4458
▁defeated	-10.4462
▁pack	-10.4467
▁worry	-10.4472
▁Family	-10.4472
▁targeted	-10.448
▁newly	-10.4481
▁gained	-10.449
▁Jon	-10.449
▁represented	-10.4492
▁innovation	-10.4493
▁Philadelphia	-10.4496
sum	-10.4499
cat	-10.4507
AA	-10.4508
▁Mid	-10.4509
mor	-10.451
▁Stone	-10.4514
▁aircraft	-10.4515
▁honest	-10.4516
▁ministry	-10.4518
Error	-10.4521
▁mistake	-10.4533
ira	-10.4534
▁sentenced	-10.4535
▁semi	-10.4539
AS	-10.4541
▁custody	-10.4542
▁shortly	-10.4543
bs	-10.4549
▁submitted	-10.4553
sey	-10.4553
▁Manager	-10.4555
▁coalition	-10.4555
▁Thompson	-10.4558
▁wage	-10.4558
▁images	-10.4559
▁sa	-10.4559
Number	-10.4563
▁Categories	-10.4564
▁witness	-10.4566
▁Mel	-10.4571
▁relief	-10.4573
▁momentum	-10.4574
nn	-10.4579
▁directed	-10.458
▁Ber	-10.4586
▁Archiv	-10.4588
▁cycle	-10.4588
bel	-10.4589
▁Make	-10.4591
zy	-10.4595
▁Rangers	-10.4595
▁expert	-10.4597
▁closely	-10.4602
▁spin	-10.4602
▁sich	-10.4603
▁replaced	-10.4603
▁greatest	-10.4614
▁Bush	-10.4615
-8	-10.4616
ators	-10.4617
▁recall	-10.4618
▁Columbia	-10.4622
▁Museum	-10.4622
▁pursue	-10.4628
▁Ty	-10.4629
Kontakt	-10.4632
▁residential	-10.4633
▁Firma	-10.4636
▁Ave	-10.4637
burg	-10.4643
▁export	-10.4646
▁Mexican	-10.4647
▁aged	-10.4648
▁Typo	-10.4651
▁unless	-10.4653
▁guide	-10.4657
▁tr	-10.466
41	-10.4663
▁machine	-10.4663
▁index	-10.4667
▁Economic	-10.4669
▁mountain	-10.4669
▁camera	-10.4669
▁atmosphere	-10.4672
▁collect	-10.4672
▁deposit	-10.4672
utzer	-10.4673
▁striker	-10.4675
▁internal	-10.4677
▁Seite	-10.468
▁chosen	-10.4684
▁Whit	-10.4685
▁Funkt	-10.4687
lar	-10.4691
angeme	-10.4692
▁attract	-10.4692
▁registrier	-10.4694
▁Kongress	-10.4694
▁Sonst	-10.4696
zo	-10.4696
bro	-10.4696
onferenz	-10.4697
umfang	-10.4697
▁Veranstalt	-10.4697
Treff	-10.4697
▁Wissen	-10.4697
Informationen	-10.4697
▁Linking	-10.47
ldeter	-10.47
▁defender	-10.4704
▁Italy	-10.4704
▁regard	-10.4707
▁flu	-10.4713
▁becomes	-10.4716
▁athletic	-10.4722
▁Mill	-10.4737
▁label	-10.4737
▁sharing	-10.4738
dr	-10.474
▁donations	-10.4741
▁bail	-10.4744
▁crore	-10.4744
28	-10.4746
mann	-10.4747
▁deaths	-10.4753
lf	-10.4754
aver	-10.4754
▁Liberal	-10.4756
▁connect	-10.4756
▁closure	-10.4756
sch	-10.4756
▁47	-10.4758
▁liberal	-10.4759
99	-10.476
▁Philippines	-10.4762
▁testing	-10.4762
▁winners	-10.4764
▁Russell	-10.4765
even	-10.4773
▁Han	-10.4776
MC	-10.4782
▁exhibit	-10.4784
St	-10.4787
▁drove	-10.4794
▁transportation	-10.4794
▁IN	-10.48
▁Duterte	-10.48
▁Sponsor	-10.4806
▁Tra	-10.4806
46	-10.4813
tle	-10.4813
▁ease	-10.4814
vert	-10.482
ky	-10.482
▁linked	-10.4825
▁Aleppo	-10.4828
▁engine	-10.4832
▁Love	-10.4835
ically	-10.4835
▁Phil	-10.4836
▁Part	-10.4839
▁56	-10.4841
▁engage	-10.4841
▁Only	-10.4842
▁Delhi	-10.4845
▁restaurants	-10.4846
▁fought	-10.4846
hr	-10.4849
▁returns	-10.4853
lli	-10.4866
▁Pra	-10.4867
ire	-10.487
03	-10.4871
▁failing	-10.4876
▁repeatedly	-10.4877
▁Win	-10.4879
▁theme	-10.4881
▁Harry	-10.4881
▁Catholic	-10.4882
▁(1	-10.4883
▁appointment	-10.4884
▁Oklahoma	-10.4888
uch	-10.4889
▁refugees	-10.489
▁adviser	-10.489
▁signing	-10.4891
▁3,	-10.4892
ali	-10.4895
kes	-10.4905
▁swing	-10.4907
▁entertainment	-10.4912
▁Tro	-10.4913
▁shoulder	-10.4913
▁attitude	-10.4917
▁proper	-10.4918
▁Apple	-10.4918
PS	-10.4926
▁yield	-10.4926
HS	-10.4931
ona	-10.4932
▁delay	-10.4932
▁IT	-10.494
aka	-10.4945
▁loans	-10.4947
▁wonder	-10.4948
):	-10.4948
▁dozen	-10.4949
▁defend	-10.495
▁stars	-10.495
27	-10.4952
▁Rick	-10.4958
▁portion	-10.4959
▁shelter	-10.4962
▁Mourinho	-10.4965
06	-10.4965
▁(2	-10.4968
▁Wisconsin	-10.4968
▁combination	-10.4971
gy	-10.4973
ima	-10.4974
▁operate	-10.4977
▁overtime	-10.4978
▁tells	-10.498
▁Wal	-10.4981
▁sick	-10.4981
▁update	-10.4982
▁Tech	-10.4983
▁consequences	-10.4984
pic	-10.4986
bra	-10.499
SP	-10.4991
▁Finance	-10.5004
▁hitting	-10.5006
▁usual	-10.501
▁succeed	-10.5013
▁rush	-10.5015
▁knowing	-10.5015
▁Yes	-10.5016
▁$8	-10.5018
▁specialist	-10.502
▁significantly	-10.5022
▁Memorial	-10.5022
Le	-10.5024
▁conviction	-10.5024
▁bull	-10.5024
ugh	-10.5025
▁Andy	-10.5029
▁collaboration	-10.5032
▁eastern	-10.5035
▁protests	-10.5036
▁pin	-10.5037
sky	-10.504
▁dress	-10.5046
BC	-10.5048
▁2-1	-10.5048
▁entry	-10.5049
▁Taiwan	-10.5054
▁client	-10.5055
▁Als	-10.5055
▁Stra	-10.5057
▁scores	-10.5057
▁recovered	-10.506
▁colleagues	-10.5061
▁acquisition	-10.5061
▁unlikely	-10.5062
▁Garden	-10.507
aga	-10.5074
▁rejected	-10.5078
▁Malta	-10.5079
shed	-10.508
▁ideal	-10.5083
arian	-10.5084
▁wing	-10.5087
▁arts	-10.5087
▁heavily	-10.5087
People	-10.5089
▁negotiations	-10.5089
app	-10.5089
▁disaster	-10.509
▁representing	-10.5092
oli	-10.5101
▁carbon	-10.5105
▁fighters	-10.5107
▁sending	-10.5111
▁Wild	-10.5114
▁cra	-10.5115
▁switch	-10.5121
▁essential	-10.5131
▁Bowl	-10.5137
▁punt	-10.5137
▁pushing	-10.514
39	-10.5142
▁holds	-10.5143
▁Arab	-10.5143
▁Trans	-10.5148
▁adds	-10.5149
▁organisation	-10.5149
▁Carter	-10.515
▁innovative	-10.5155
RO	-10.5162
▁aim	-10.5163
istic	-10.5163
▁anniversary	-10.5165
▁parliament	-10.5167
▁blocked	-10.5168
▁establishment	-10.517
▁earnings	-10.5174
Trump	-10.5174
▁confirm	-10.5174
▁Constitution	-10.5179
▁Oak	-10.518
▁pilot	-10.5184
▁backed	-10.5186
▁ha	-10.5187
▁forms	-10.5191
▁paint	-10.5193
▁rushed	-10.5193
65	-10.5195
▁Section	-10.5196
▁senator	-10.5198
read	-10.5201
▁mentioned	-10.5206
▁plate	-10.521
ux	-10.5211
▁clock	-10.5212
ado	-10.5213
▁argue	-10.5213
▁beating	-10.5215
hl	-10.5215
ott	-10.5215
▁premium	-10.5217
▁1-0	-10.5218
These	-10.522
▁sharp	-10.5226
RC	-10.5229
▁controversial	-10.523
set	-10.5237
aries	-10.524
esh	-10.5245
away	-10.5246
▁drinking	-10.5248
pho	-10.5248
▁midfielder	-10.5252
zz	-10.5252
▁category	-10.5253
▁alive	-10.5255
▁army	-10.5257
ification	-10.526
▁originally	-10.5263
▁museum	-10.5263
▁residence	-10.5267
▁relatively	-10.5268
cast	-10.5272
▁ending	-10.5274
tte	-10.5277
An	-10.5277
▁Following	-10.5278
▁respectively	-10.5279
▁Missouri	-10.5283
▁Governor	-10.5286
▁passengers	-10.5287
▁Lane	-10.5292
bert	-10.5295
▁Bel	-10.5297
▁fail	-10.5302
▁2020	-10.5304
▁Ven	-10.5306
▁tools	-10.5308
▁chose	-10.531
▁express	-10.5313
▁governments	-10.5315
▁Book	-10.5315
▁territory	-10.5316
▁collected	-10.5316
▁elect	-10.5316
▁2005	-10.5317
▁map	-10.5318
ake	-10.5318
▁engineering	-10.532
▁pounds	-10.5321
▁Utah	-10.5323
▁Ac	-10.5328
▁bl	-10.5329
▁expects	-10.5333
▁honour	-10.5335
▁Del	-10.5337
02	-10.5339
▁stronger	-10.5339
▁drawn	-10.5343
▁device	-10.5348
37	-10.5353
nic	-10.5358
▁tourism	-10.5359
▁provider	-10.5363
▁Marine	-10.537
▁chef	-10.538
▁reveal	-10.5381
▁performing	-10.5383
▁Kan	-10.5384
IA	-10.5384
ular	-10.5388
De	-10.539
▁Gen	-10.5392
▁2012,	-10.5392
▁lawmakers	-10.5395
▁forest	-10.5396
▁qua	-10.5401
▁tweet	-10.5401
▁Chelsea	-10.5402
▁creation	-10.5404
▁invest	-10.541
▁Bull	-10.5414
▁Oregon	-10.5416
▁painting	-10.5421
One	-10.5421
MS	-10.5424
rad	-10.5424
▁Italian	-10.5426
▁Ron	-10.5427
▁counts	-10.5427
▁films	-10.5428
▁retirement	-10.5431
▁Lions	-10.5432
▁Sur	-10.5437
▁relevant	-10.5443
vol	-10.5443
▁FC	-10.5446
▁landscape	-10.5453
▁hockey	-10.5459
▁occur	-10.5461
▁bin	-10.5461
▁edition	-10.5466
▁medal	-10.5469
▁Eastern	-10.547
▁weak	-10.547
▁vast	-10.5471
▁metal	-10.5472
atory	-10.5473
▁complaints	-10.5474
▁cell	-10.5479
▁Thanksgiving	-10.5483
▁worldwide	-10.5483
▁qualified	-10.5486
▁organised	-10.5491
▁athletes	-10.5492
star	-10.5494
power	-10.5495
▁Ser	-10.5496
▁studio	-10.5513
▁incumbent	-10.5517
▁Six	-10.5526
▁volume	-10.553
▁Mag	-10.5531
▁Cooper	-10.5531
ult	-10.5532
ily	-10.5532
▁specifically	-10.5533
▁disc	-10.5536
BA	-10.5536
NC	-10.5541
wide	-10.5543
▁Kong	-10.5546
avi	-10.5547
▁researchers	-10.5548
▁54	-10.5549
dar	-10.555
▁nomination	-10.5551
▁establish	-10.5552
life	-10.5552
▁Place	-10.5554
▁solar	-10.5555
▁featuring	-10.5557
pur	-10.556
▁violent	-10.5564
▁Mitchell	-10.5564
EA	-10.5565
▁emerged	-10.5568
▁marked	-10.5569
than	-10.5569
▁incidents	-10.5569
▁Grant	-10.5578
▁mixed	-10.5579
▁concluded	-10.5579
▁workshop	-10.5582
utzen	-10.5593
▁argument	-10.5595
Mar	-10.5599
▁symbol	-10.5602
▁Republic	-10.5602
ties	-10.5603
▁Trade	-10.5604
▁proposals	-10.5604
▁promotion	-10.5605
▁engaged	-10.5607
–	-10.5607
▁pictures	-10.5607
▁blame	-10.5612
lia	-10.5613
▁Technology	-10.5615
▁inflation	-10.5615
rated	-10.5618
▁entirely	-10.5618
▁Baker	-10.5626
▁Reuters	-10.5626
▁relationships	-10.5631
▁Yu	-10.5635
▁Creek	-10.5636
pper	-10.5639
▁publicly	-10.564
▁lit	-10.5643
▁rebounds	-10.5643
-14	-10.5644
held	-10.5646
▁combat	-10.5646
▁Ph	-10.5648
▁recognize	-10.565
▁distribution	-10.5653
▁Dun	-10.5662
▁51	-10.5663
ero	-10.5663
ati	-10.5663
▁permanent	-10.5666
▁resulted	-10.5666
ologist	-10.5667
she	-10.5675
▁conf	-10.5676
▁western	-10.5677
▁arrive	-10.5681
▁yard	-10.5683
▁suffer	-10.5684
▁eighth	-10.5684
▁prefer	-10.5685
▁Rights	-10.5689
▁outdoor	-10.5692
ison	-10.5692
▁promises	-10.5694
▁firms	-10.5695
pat	-10.5695
▁Tata	-10.57
▁rail	-10.5701
ami	-10.5701
book	-10.5704
▁Lincoln	-10.5704
UN	-10.5706
▁import	-10.5706
▁messages	-10.571
▁Morgan	-10.5711
▁breast	-10.5715
▁stream	-10.5716
▁Lin	-10.5716
▁stations	-10.5718
▁journalists	-10.5719
▁kills	-10.5721
▁regularly	-10.5721
week	-10.5729
▁rely	-10.5733
▁types	-10.5734
▁healthcare	-10.5737
ili	-10.5745
ata	-10.5747
▁Chamber	-10.5749
▁Iran	-10.5754
▁sets	-10.5755
▁Hong	-10.5758
born	-10.5761
xi	-10.5765
▁meal	-10.5766
wick	-10.5766
▁serves	-10.5768
▁finishing	-10.577
▁Heart	-10.5776
▁objective	-10.578
▁achieved	-10.578
▁incredible	-10.578
▁joining	-10.5783
▁Mur	-10.5784
dan	-10.5789
▁clash	-10.5791
▁chemical	-10.5793
▁abroad	-10.5794
▁Google	-10.5801
▁Nu	-10.5804
▁officially	-10.5804
▁System	-10.5805
▁stone	-10.5816
▁except	-10.5816
ees	-10.5816
▁sustainable	-10.5816
sis	-10.5818
▁Get	-10.5818
▁Ter	-10.5822
▁march	-10.5823
▁eligible	-10.5826
lee	-10.5829
▁disappointed	-10.5833
eo	-10.5837
▁attending	-10.5838
▁Tan	-10.5842
CNN	-10.5843
▁Airport	-10.5844
▁Mal	-10.5845
▁comp	-10.5849
▁See	-10.5855
▁18,	-10.5858
▁Prince	-10.586
▁arms	-10.5861
▁tank	-10.5861
La	-10.5864
get	-10.5866
▁preparation	-10.5867
▁aside	-10.5872
▁poverty	-10.5874
ei	-10.5875
▁suspected	-10.5877
▁extensive	-10.5881
▁headquarters	-10.5881
▁Ci	-10.5886
aving	-10.5891
ature	-10.5892
▁acts	-10.5897
▁stayed	-10.5907
▁lots	-10.5909
▁baseball	-10.5911
ria	-10.5913
▁Ask	-10.5914
mph	-10.5919
Do	-10.5926
▁obvious	-10.5934
▁hoped	-10.5939
42	-10.5944
▁Fu	-10.5944
gal	-10.5944
▁Ol	-10.5947
$	-10.5952
▁champions	-10.5956
▁milk	-10.5959
enpresse	-10.5962
▁friendly	-10.5963
▁historical	-10.5963
▁birthday	-10.5964
olo	-10.5964
▁RE	-10.5965
▁Son	-10.5965
▁formed	-10.5965
▁Ontario	-10.5966
owned	-10.5967
▁teenager	-10.5968
▁66	-10.5968
▁addressed	-10.5968
cap	-10.5969
▁stepped	-10.5971
▁alarm	-10.5971
▁unknown	-10.5975
▁affairs	-10.5976
ika	-10.5977
▁gay	-10.5977
bon	-10.5977
▁Olympic	-10.5977
pon	-10.598
▁advised	-10.598
▁actor	-10.5984
een	-10.5984
▁Greg	-10.5985
▁unusual	-10.5987
▁calm	-10.5991
▁cited	-10.5997
▁reputation	-10.6005
put	-10.6005
IM	-10.6006
▁Walker	-10.6009
▁Sign	-10.6014
ush	-10.602
▁districts	-10.6028
▁400	-10.603
ius	-10.6033
pot	-10.6036
uri	-10.6038
▁prosecutors	-10.6039
▁enterprise	-10.604
til	-10.6041
▁quiet	-10.6044
▁fewer	-10.605
▁preparing	-10.6051
▁Alberta	-10.6053
▁agent	-10.6056
mus	-10.6057
▁Buck	-10.6063
▁industries	-10.6065
▁segment	-10.6065
rop	-10.6066
key	-10.6069
▁heads	-10.607
▁agents	-10.6071
▁reduction	-10.6076
▁diverse	-10.6076
▁entering	-10.6077
▁seasons	-10.6081
ld	-10.6082
▁Junior	-10.6083
▁destination	-10.6083
▁homeless	-10.6083
▁remarks	-10.6083
▁branch	-10.6084
▁somebody	-10.6085
▁mining	-10.6088
yan	-10.6088
▁realize	-10.609
▁Way	-10.609
▁saved	-10.6093
▁drew	-10.6094
▁Fresno	-10.6094
▁react	-10.6097
▁Bureau	-10.6098
▁settlement	-10.6102
▁Francisco	-10.6103
LA	-10.6107
▁coaching	-10.6111
43	-10.6113
▁empty	-10.6115
▁Hard	-10.6119
▁Calgary	-10.6122
▁smile	-10.6127
▁consistent	-10.6128
▁AT	-10.6132
▁encouraging	-10.6133
▁recording	-10.6135
▁guarantee	-10.6135
▁guess	-10.6137
▁typically	-10.6139
▁£3	-10.614
▁rescue	-10.6142
iel	-10.6142
▁militants	-10.6144
▁Jose	-10.6147
CO	-10.6147
box	-10.6147
▁ta	-10.615
itt	-10.6151
▁library	-10.6151
▁breach	-10.6152
▁reward	-10.6152
▁Bri	-10.6154
▁degrees	-10.6155
▁Program	-10.6156
▁Foreign	-10.6158
▁broadcast	-10.616
▁pumpkin	-10.616
▁formal	-10.6161
▁sponsor	-10.6166
▁Master	-10.6171
▁53	-10.6174
▁increases	-10.6174
▁Earth	-10.6176
▁comfort	-10.6177
▁drawing	-10.6181
▁Awards	-10.6182
▁Putin	-10.6184
▁reaching	-10.6184
▁shouldn	-10.6184
▁moral	-10.6186
ink	-10.6195
▁trained	-10.6197
▁venture	-10.6198
▁Guyana	-10.6198
aya	-10.62
▁recognized	-10.6201
▁technologies	-10.6202
▁Cro	-10.6203
gs	-10.6205
▁laid	-10.6205
▁thrown	-10.6207
▁Elizabeth	-10.6209
▁attacked	-10.6211
▁persons	-10.6214
▁signature	-10.6217
▁indicate	-10.6218
▁min	-10.6218
▁alert	-10.6219
▁anywhere	-10.6222
▁capable	-10.6222
▁portfolio	-10.6223
▁provision	-10.6225
chan	-10.6225
▁drama	-10.6226
▁Graham	-10.6229
▁2-0	-10.623
▁Yo	-10.623
▁reception	-10.6231
▁Val	-10.6232
▁civilians	-10.6238
▁legislative	-10.6238
▁Ve	-10.6239
▁Mississippi	-10.6242
wer	-10.6245
▁Cr	-10.6247
59	-10.625
ula	-10.6253
▁Cur	-10.6254
▁log	-10.6255
▁threats	-10.6256
▁Austin	-10.626
▁Station	-10.6263
▁Light	-10.6267
▁Mus	-10.6268
▁lawyers	-10.6268
▁Arm	-10.627
▁educational	-10.6271
▁2013,	-10.6273
▁web	-10.6275
▁discussions	-10.6275
▁sn	-10.6279
▁Springs	-10.6284
▁enhance	-10.6287
▁Henry	-10.6289
▁professionals	-10.6289
▁lift	-10.6289
utter	-10.629
▁Kyle	-10.6292
▁electricity	-10.6292
▁contained	-10.6293
▁maintenance	-10.63
▁opener	-10.63
▁mainly	-10.6301
On	-10.6309
▁Orange	-10.6313
▁cre	-10.6315
▁column	-10.6317
EP	-10.6318
▁defending	-10.632
▁Champions	-10.6321
▁Ward	-10.6322
▁principal	-10.6322
▁targets	-10.6322
▁Any	-10.6322
▁impossible	-10.6325
▁analysts	-10.6326
▁cur	-10.6329
ena	-10.6331
▁Lord	-10.6333
▁Gordon	-10.6333
CE	-10.6335
ered	-10.6337
▁episode	-10.634
▁solve	-10.634
ban	-10.6341
ching	-10.6343
▁properly	-10.6345
▁yes	-10.6345
▁CNN	-10.6347
▁comprehensive	-10.6347
sure	-10.635
fin	-10.6351
▁strengthen	-10.6352
▁Leeds	-10.6354
▁fears	-10.6355
▁strongly	-10.6358
▁deeply	-10.636
▁Sean	-10.6369
▁follows	-10.6373
▁command	-10.638
▁McG	-10.6386
▁sheriff	-10.6388
▁species	-10.6388
▁64	-10.639
▁Wright	-10.639
▁chicken	-10.6392
▁snap	-10.6393
▁plot	-10.6396
▁peaceful	-10.6396
cut	-10.6397
▁Iowa	-10.64
eh	-10.6401
▁indicated	-10.6404
51	-10.6405
col	-10.6406
▁referred	-10.6407
take	-10.6409
bling	-10.6412
▁shops	-10.6412
▁frame	-10.6413
▁Seahawks	-10.6421
▁dismissed	-10.6424
▁Jacob	-10.6425
ened	-10.6426
▁2004	-10.6432
▁smooth	-10.6432
▁Cla	-10.6432
▁Cho	-10.6437
▁Golden	-10.6439
▁20-	-10.6442
▁hospitals	-10.6443
eller	-10.6447
▁Dean	-10.6449
ans	-10.6451
▁Cl	-10.6452
▁Er	-10.6456
▁Com	-10.6457
▁recognition	-10.6458
▁resort	-10.6458
▁Murphy	-10.6458
▁eating	-10.646
nel	-10.6461
▁Den	-10.6461
▁gear	-10.6463
▁suggests	-10.6469
▁storage	-10.6469
▁Hart	-10.6471
▁Stock	-10.6477
▁Take	-10.6477
▁Ann	-10.6479
▁gathering	-10.6481
58	-10.6481
ffer	-10.6484
▁30,	-10.6491
▁neither	-10.6492
iya	-10.6492
48	-10.6492
met	-10.6493
▁anger	-10.6494
dal	-10.6499
OW	-10.6503
ore	-10.6504
▁bio	-10.6514
▁thus	-10.6514
piece	-10.6515
▁controlled	-10.6517
▁constitutional	-10.6519
▁$10	-10.6519
▁loud	-10.6519
▁forum	-10.6522
▁retain	-10.6526
▁Crown	-10.6528
▁collective	-10.6531
Be	-10.6534
▁lucky	-10.6539
▁profile	-10.6539
▁occasion	-10.654
▁emissions	-10.6544
bre	-10.6547
▁classroom	-10.655
▁Morris	-10.6551
▁tests	-10.6552
▁regime	-10.6554
▁parade	-10.6555
▁Tar	-10.6555
sign	-10.6558
▁improvements	-10.6559
▁uncertainty	-10.6563
level	-10.6564
winning	-10.6568
▁diversity	-10.657
▁fa	-10.6571
bal	-10.6572
▁le	-10.6575
54	-10.658
▁Gre	-10.6581
▁pattern	-10.6581
ME	-10.6584
hood	-10.6587
very	-10.6588
▁Des	-10.6589
▁aims	-10.6592
rat	-10.6593
▁NBA	-10.6593
56	-10.6594
▁agriculture	-10.6596
▁orders	-10.66
▁Watch	-10.66
▁banking	-10.6602
▁inform	-10.6603
oke	-10.6604
ava	-10.6606
▁contacted	-10.6606
▁hang	-10.6611
▁magazine	-10.6611
ological	-10.6612
▁pound	-10.6617
nal	-10.6617
▁rhetoric	-10.6619
▁Diego	-10.6619
▁fishing	-10.6621
▁lease	-10.6623
57	-10.6626
mont	-10.6626
▁universities	-10.6627
▁micro	-10.6638
with	-10.6644
▁Luke	-10.6644
▁halftime	-10.6649
▁coordinator	-10.6649
▁recommended	-10.665
▁monthly	-10.6651
oy	-10.6654
▁overnight	-10.6656
▁hosting	-10.6659
▁Civil	-10.6661
▁seniors	-10.6662
▁narrow	-10.6666
TE	-10.6668
mount	-10.6668
will	-10.6668
▁Next	-10.6672
▁rape	-10.6673
anna	-10.6674
▁fallen	-10.6678
▁applied	-10.668
mel	-10.668
▁Gri	-10.6681
▁recommend	-10.6687
▁fundamental	-10.6687
▁Singh	-10.6688
how	-10.669
▁string	-10.6695
▁prosecutor	-10.6696
▁burn	-10.6696
▁finger	-10.67
▁medicine	-10.6703
▁keen	-10.6703
EL	-10.6707
▁highway	-10.671
▁investigators	-10.671
elle	-10.6713
UR	-10.6714
▁colour	-10.6721
▁upgrade	-10.6722
iness	-10.6727
▁h	-10.6728
▁generate	-10.6732
▁contribution	-10.6736
▁uses	-10.6736
making	-10.6736
▁Motor	-10.6738
▁Raj	-10.6744
▁donated	-10.6744
▁Add	-10.6746
▁Mas	-10.675
▁Camp	-10.675
▁temporary	-10.6752
▁Ray	-10.6754
▁Alabama	-10.6756
▁minority	-10.676
▁clothing	-10.6763
mond	-10.6772
▁Kirk	-10.6772
▁Ana	-10.6774
▁tail	-10.6775
Mo	-10.6778
▁bills	-10.6782
▁permit	-10.6783
▁prospect	-10.6783
called	-10.6792
▁settle	-10.6793
▁Library	-10.6794
▁Adams	-10.6797
▁sto	-10.68
▁wealth	-10.6801
▁innings	-10.6804
▁guest	-10.6804
▁Limited	-10.6809
▁estimates	-10.6809
▁celebrated	-10.6815
▁Sc	-10.6816
▁JavaScript	-10.6816
▁penalties	-10.6817
▁medium	-10.6817
▁Israeli	-10.6818
pel	-10.6819
▁EC	-10.6825
▁worker	-10.6827
▁Ronald	-10.6833
▁overseas	-10.6844
▁Metro	-10.6846
▁involvement	-10.6846
▁clinic	-10.6847
▁investments	-10.6847
▁57	-10.685
▁turns	-10.6852
▁sum	-10.6852
▁euro	-10.6852
▁auto	-10.6856
▁NHS	-10.686
lton	-10.6862
▁contain	-10.6862
▁Bears	-10.6866
▁escape	-10.6867
▁apparently	-10.6871
▁hole	-10.6873
cade	-10.6876
▁suspects	-10.6877
standing	-10.6882
▁Os	-10.6885
▁shoot	-10.6886
▁memories	-10.6891
▁Five	-10.6896
▁spokesperson	-10.6898
▁lobby	-10.6898
▁taught	-10.6899
▁150	-10.6902
OC	-10.6904
▁Jonathan	-10.6906
▁maximum	-10.6906
▁Arena	-10.6906
▁Pu	-10.6907
▁obligation	-10.691
▁bat	-10.6911
▁mandate	-10.6912
▁NCAA	-10.6914
▁sounds	-10.6914
▁Char	-10.6915
raw	-10.6915
▁72	-10.6919
▁turnout	-10.6921
bound	-10.6926
shaw	-10.693
▁Philip	-10.693
▁CH	-10.6934
hn	-10.6935
▁Navy	-10.6936
▁jumped	-10.6939
▁teen	-10.694
▁Edmonton	-10.6941
▁3-0	-10.6943
Ch	-10.6945
▁Mil	-10.6951
▁58	-10.6956
▁Kings	-10.6959
▁Reserve	-10.6962
hol	-10.6964
oma	-10.6967
gram	-10.6968
▁arrival	-10.6968
▁obtain	-10.6969
bed	-10.6971
▁Unit	-10.6972
▁cook	-10.6974
▁Beijing	-10.6976
person	-10.6976
oh	-10.6977
▁click	-10.6978
▁investigate	-10.698
88	-10.6988
▁attendance	-10.6994
▁questioned	-10.7
▁mouth	-10.7
▁Nation	-10.7002
▁vocal	-10.7007
▁substantial	-10.7008
▁harder	-10.7011
52	-10.7011
▁roof	-10.7013
▁cannabis	-10.7015
▁grave	-10.7015
▁30-	-10.7025
TM	-10.7026
▁stuck	-10.7027
▁judgment	-10.7031
▁valuable	-10.7031
▁(4	-10.7032
DC	-10.7038
OS	-10.7042
▁nations	-10.7044
▁resume	-10.7045
▁Nelson	-10.7055
▁delighted	-10.7057
▁Administration	-10.7058
▁stocks	-10.7062
▁patrol	-10.7066
ike	-10.7067
▁faster	-10.7075
una	-10.7075
ches	-10.708
▁drought	-10.7082
▁insisted	-10.7086
▁Maybe	-10.7086
▁predict	-10.7088
▁Recommended	-10.709
ify	-10.7091
▁Play	-10.7094
▁welcomed	-10.7097
▁plastic	-10.7098
▁Disqus	-10.7098
degree	-10.7099
▁inquiry	-10.7114
▁fatal	-10.7121
▁initiatives	-10.7124
▁remind	-10.7126
▁Bad	-10.7133
▁4,	-10.7134
▁Sho	-10.7136
▁Reading	-10.7137
▁franchise	-10.7138
▁claiming	-10.7142
▁teammates	-10.7143
▁consideration	-10.7144
▁lock	-10.7148
▁silver	-10.715
▁absence	-10.715
▁Several	-10.7157
▁beauty	-10.7157
▁pride	-10.716
▁implementation	-10.716
▁Howard	-10.716
▁Syracuse	-10.7161
bank	-10.7162
▁expanded	-10.7166
▁mum	-10.7175
▁3-1	-10.7176
atter	-10.7177
95	-10.7178
plan	-10.7178
▁showcase	-10.7179
▁engagement	-10.7183
▁communications	-10.7184
▁Cabinet	-10.7185
▁citizen	-10.7186
▁associate	-10.7186
ene	-10.7189
▁roughly	-10.7192
fire	-10.7197
▁Alan	-10.7197
ters	-10.72
▁Mount	-10.7201
▁consultation	-10.7201
▁noticed	-10.7205
▁cheese	-10.7205
ander	-10.7206
vy	-10.7208
hor	-10.7212
▁ages	-10.7212
▁Fargo	-10.7215
▁counsel	-10.7217
▁Columbus	-10.7217
▁rugby	-10.7217
ean	-10.7218
▁indeed	-10.7221
/2016	-10.7222
▁Off	-10.7222
76	-10.7223
Bo	-10.7223
▁conclusion	-10.723
▁Published	-10.7233
▁Jersey	-10.7233
▁cream	-10.7234
▁acknowledged	-10.7236
▁Resources	-10.7237
▁contrast	-10.7237
▁racist	-10.7237
▁MPs	-10.7238
▁5,	-10.7239
▁efficient	-10.7244
ila	-10.7249
▁Anyone	-10.7251
▁successfully	-10.7251
▁secured	-10.7252
AD	-10.7252
▁captured	-10.7259
▁advocate	-10.7263
▁widely	-10.7264
▁flying	-10.7265
▁tribute	-10.7269
▁weekly	-10.7269
▁brilliant	-10.7274
▁custom	-10.7275
ister	-10.7278
▁Square	-10.7282
▁laugh	-10.7284
▁moves	-10.7284
▁SC	-10.7288
itch	-10.7289
▁Sarah	-10.7289
▁Glasgow	-10.729
▁barrel	-10.729
▁fe	-10.7299
".	-10.7301
▁detail	-10.7303
▁limits	-10.7306
▁extension	-10.7306
▁spell	-10.7309
▁understood	-10.731
▁visual	-10.7314
▁Spanish	-10.7322
▁participation	-10.7322
▁peak	-10.7323
▁organisations	-10.7325
▁racial	-10.7326
rant	-10.733
▁pocket	-10.7332
▁riding	-10.7335
▁passenger	-10.7337
▁25-	-10.7337
▁15-	-10.734
▁shirt	-10.7343
▁blast	-10.7344
▁intervention	-10.7346
▁contributions	-10.7347
▁SEC	-10.7348
▁Afghanistan	-10.735
▁joy	-10.7351
▁length	-10.736
MO	-10.7361
▁findings	-10.7362
▁opt	-10.7366
some	-10.737
▁hopefully	-10.7375
▁blocks	-10.7376
▁readers	-10.7384
ada	-10.7385
▁bra	-10.7386
▁Village	-10.7388
▁Youth	-10.7389
▁hired	-10.7391
ture	-10.7396
▁hike	-10.7398
▁models	-10.7398
▁Swa	-10.7399
stein	-10.7401
▁lies	-10.7403
▁Athletic	-10.7403
▁circle	-10.7404
▁approached	-10.7405
▁wheel	-10.7406
▁auction	-10.7407
▁costume	-10.7408
▁PA	-10.741
stra	-10.7414
▁folks	-10.7416
mber	-10.7417
zer	-10.7418
▁talented	-10.742
ounce	-10.742
▁adopted	-10.7425
▁Band	-10.7426
▁filing	-10.7426
▁1980	-10.7427
▁Professor	-10.7428
▁proven	-10.7432
▁opposite	-10.7432
▁footage	-10.7433
▁62	-10.7435
▁advertising	-10.7436
▁Kel	-10.744
▁Conservative	-10.744
char	-10.7445
-19	-10.7446
Stadt	-10.7447
rich	-10.7447
▁Wy	-10.7448
▁Defense	-10.7452
bri	-10.7453
▁allies	-10.7453
▁theft	-10.7453
▁NEW	-10.7453
Some	-10.7454
ame	-10.7454
Ar	-10.7455
▁67	-10.7456
erson	-10.7458
MP	-10.7459
▁horse	-10.746
▁chip	-10.7462
00,000	-10.7463
▁View	-10.747
▁regardless	-10.7475
▁totally	-10.7478
▁mistakes	-10.7482
▁Having	-10.7483
ica	-10.7484
▁intent	-10.7485
▁elements	-10.7486
vel	-10.7491
▁producer	-10.7492
▁cake	-10.7492
wal	-10.7493
▁purchased	-10.7495
▁compensation	-10.7498
▁angry	-10.7498
uld	-10.7499
▁fake	-10.7499
OL	-10.7501
▁Vancouver	-10.7502
▁---	-10.7502
care	-10.7502
Lo	-10.7503
▁tap	-10.7505
hold	-10.7505
53	-10.7507
▁Wayne	-10.7508
▁volleyball	-10.751
▁neck	-10.751
▁posts	-10.7512
▁MA	-10.7512
▁Ce	-10.7514
▁damaged	-10.7515
▁Crime	-10.7516
▁sessions	-10.752
▁1990	-10.7522
▁wedding	-10.7523
▁airline	-10.7524
▁employ	-10.7524
▁rec	-10.7531
▁maintained	-10.7536
▁Coventry	-10.7539
▁Line	-10.754
▁Vo	-10.7542
▁rooms	-10.7544
▁transform	-10.7546
▁Detroit	-10.7547
▁organized	-10.7547
▁Safety	-10.7548
▁channel	-10.755
▁Bulldogs	-10.7551
▁necessarily	-10.7551
▁sheet	-10.7556
▁Khan	-10.7556
▁gains	-10.7557
▁highlight	-10.7558
▁tackles	-10.7561
▁reducing	-10.7564
▁cooperation	-10.7564
FC	-10.7565
▁ensuring	-10.7568
▁afraid	-10.7572
▁Kennedy	-10.7576
▁teach	-10.7576
▁Brad	-10.7577
▁roles	-10.7577
▁Gro	-10.7579
▁valid	-10.7584
▁legacy	-10.7585
dra	-10.7585
▁joke	-10.7587
▁consultant	-10.7588
▁BC	-10.7588
▁lie	-10.7591
▁Saudi	-10.7594
▁loose	-10.7598
▁im	-10.7598
▁gang	-10.7598
▁hunt	-10.7599
▁contracts	-10.7603
ace	-10.7603
▁substance	-10.7609
market	-10.7609
▁anybody	-10.7614
▁fixed	-10.7616
▁submit	-10.7618
▁resource	-10.7618
▁commit	-10.7621
▁acres	-10.7623
ced	-10.7624
-1)	-10.7624
▁harvest	-10.763
ency	-10.7634
SI	-10.7638
▁deer	-10.7638
▁theatre	-10.7639
▁saves	-10.7641
50,000	-10.7641
▁Gas	-10.7645
▁marks	-10.7646
▁etc	-10.765
▁prosecution	-10.7651
▁71	-10.7654
▁choices	-10.7655
ump	-10.7657
▁Tokyo	-10.7659
twitter	-10.7659
pin	-10.766
IR	-10.7663
aged	-10.7664
tics	-10.7666
▁founded	-10.7668
▁Muslims	-10.7668
bn	-10.7669
▁staying	-10.767
▁beaten	-10.7673
▁Hang	-10.7675
▁SU	-10.7677
▁discipline	-10.7678
▁2012.	-10.768
▁causes	-10.7681
▁regulatory	-10.7681
▁fundraising	-10.7685
▁Nigerian	-10.7685
▁elsewhere	-10.7685
▁disorder	-10.7685
ctor	-10.7686
▁activists	-10.7689
▁AND	-10.769
▁goalkeeper	-10.769
yne	-10.7694
▁extreme	-10.7696
▁31,	-10.7698
▁61	-10.7699
▁adopt	-10.7699
▁$9	-10.77
▁implement	-10.7701
▁mom	-10.7701
▁nonprofit	-10.7702
▁Country	-10.7703
itz	-10.7705
PP	-10.7709
▁gate	-10.7711
▁HERE	-10.7714
▁reverse	-10.7717
▁zero	-10.7718
▁resulting	-10.7719
▁depth	-10.7719
▁labor	-10.7722
night	-10.7723
ening	-10.7726
▁6-	-10.7726
▁server	-10.7728
▁covering	-10.7739
poli	-10.7739
▁Hollywood	-10.7739
▁monitoring	-10.7745
▁jet	-10.7745
▁Prof	-10.7747
▁collision	-10.7748
▁sky	-10.7749
▁bags	-10.7753
▁aspects	-10.7754
▁Gray	-10.7755
▁tech	-10.776
▁discover	-10.776
Pa	-10.7761
63	-10.7763
100	-10.7768
▁Campbell	-10.7769
▁lineup	-10.777
▁Hy	-10.7771
▁Guard	-10.7776
▁detailed	-10.7776
▁brown	-10.7778
▁elite	-10.7779
▁Leader	-10.7781
▁Mah	-10.7788
▁ends	-10.7791
inch	-10.7793
▁probe	-10.7799
▁68	-10.7805
▁Visit	-10.7805
▁17,	-10.7807
▁2003	-10.7807
▁fault	-10.7808
▁Ang	-10.7812
▁Evans	-10.7815
▁recalled	-10.7817
▁Pac	-10.7817
▁providers	-10.7817
▁Spain	-10.7819
▁obtained	-10.782
▁completion	-10.782
▁supplies	-10.782
▁dialogue	-10.782
▁secondary	-10.7821
▁el	-10.7821
?"	-10.7823
▁stressed	-10.7823
▁OK	-10.7825
▁Michelle	-10.7826
rim	-10.7828
▁Ze	-10.7828
▁intense	-10.7828
matic	-10.7829
▁Communications	-10.7829
teen	-10.783
▁investigations	-10.7834
▁Dev	-10.7835
▁Edwards	-10.7835
▁Amazon	-10.7837
▁seized	-10.7841
▁Mahama	-10.7846
▁latter	-10.7851
▁lowest	-10.7853
▁Source	-10.7854
▁Ak	-10.7854
▁urge	-10.7855
▁101	-10.7856
61	-10.7857
LO	-10.786
▁beach	-10.7865
lk	-10.7865
▁Investment	-10.7867
▁accurate	-10.7867
▁Jets	-10.7869
▁recommendations	-10.787
▁Senator	-10.7871
▁proceed	-10.7871
▁grab	-10.7872
▁weapon	-10.7873
▁Pence	-10.7876
ST	-10.7876
▁sustained	-10.7879
▁exceed	-10.7879
▁Sab	-10.788
▁destroyed	-10.7883
▁labour	-10.7885
▁deadline	-10.7889
▁savings	-10.789
▁kicked	-10.7891
▁sectors	-10.7891
vid	-10.7892
▁Victoria	-10.7897
▁2013.	-10.7897
▁rebound	-10.79
▁NPP	-10.7903
▁regulation	-10.7904
▁Stewart	-10.7905
▁skill	-10.7908
▁reporter	-10.7913
▁soul	-10.7913
▁Dylan	-10.7914
▁consist	-10.7918
▁Kurdish	-10.7922
▁journalist	-10.7924
uma	-10.7926
▁grateful	-10.7927
ole	-10.7927
▁steel	-10.7931
▁Brazil	-10.7937
▁demonstration	-10.794
▁tries	-10.7943
▁Jean	-10.7944
▁Ly	-10.7944
▁69	-10.7945
▁sing	-10.7947
▁Price	-10.7947
final	-10.795
owner	-10.7951
▁Jake	-10.7953
▁foul	-10.7953
▁noise	-10.7956
▁theater	-10.796
▁Building	-10.7965
▁user	-10.7967
▁opinions	-10.7968
▁Anti	-10.7969
▁tune	-10.797
▁Are	-10.7972
▁asset	-10.7976
▁halt	-10.7976
BS	-10.7977
▁scientists	-10.7979
▁breath	-10.7984
▁reasonable	-10.7984
▁inspiration	-10.7987
fri	-10.7989
▁subscription	-10.7991
▁Rio	-10.7992
▁illness	-10.7996
▁privilege	-10.7996
▁12-	-10.7996
▁handling	-10.7998
▁Anna	-10.8
▁prominent	-10.8
▁bake	-10.8003
▁travelling	-10.8004
TT	-10.8007
▁exposed	-10.8008
▁rivals	-10.801
▁NHL	-10.801
▁sentiment	-10.8013
▁publication	-10.8026
▁crown	-10.8027
itu	-10.8029
ND	-10.8031
▁nobody	-10.8036
▁replacement	-10.8038
62	-10.8039
▁scenario	-10.8039
▁lady	-10.8042
▁capture	-10.8046
▁Fall	-10.8047
ello	-10.8048
▁Robinson	-10.8049
▁crop	-10.8049
yl	-10.805
▁spaces	-10.8051
▁Fri	-10.8051
FA	-10.8053
▁stable	-10.8053
▁tall	-10.8056
▁Alliance	-10.8056
▁recruit	-10.8058
▁chocolate	-10.8061
▁Tor	-10.8063
▁analyst	-10.8064
▁planet	-10.8065
▁commander	-10.8065
▁salt	-10.8067
test	-10.8073
Marketwired	-10.8074
")	-10.8079
▁dozens	-10.8081
▁permission	-10.8083
hen	-10.8087
▁shortage	-10.8088
▁linebacker	-10.8091
▁Sim	-10.8095
▁method	-10.8098
▁tip	-10.8106
pass	-10.8111
",	-10.8112
▁tremendous	-10.8113
▁sta	-10.812
▁deserve	-10.8122
DP	-10.8127
HA	-10.813
ote	-10.8131
▁59	-10.8131
▁Bla	-10.8131
▁insight	-10.8132
▁Kal	-10.8136
▁experiment	-10.8139
▁belief	-10.8141
68	-10.8144
▁clinical	-10.8145
▁Such	-10.8148
▁Boo	-10.815
▁runner	-10.8151
▁mini	-10.8153
▁Indiana	-10.8154
▁racing	-10.8154
▁mortgage	-10.8157
▁Has	-10.8158
▁personally	-10.816
▁chapter	-10.8161
dia	-10.8164
▁constantly	-10.8166
▁adapt	-10.8166
▁exist	-10.8167
kins	-10.8168
▁Fla	-10.8168
▁rookie	-10.817
rise	-10.8172
85	-10.8174
▁Cra	-10.8178
▁Korean	-10.8178
▁gotten	-10.8178
▁runners	-10.8179
▁Boy	-10.8179
▁2001	-10.818
▁TO	-10.818
cia	-10.8182
▁flash	-10.8183
▁Sar	-10.8188
▁Radio	-10.8189
▁Through	-10.8191
▁facts	-10.8193
Ro	-10.8207
▁dominated	-10.8208
▁sideline	-10.8209
▁producers	-10.821
ender	-10.8214
▁hadn	-10.8217
▁Pri	-10.822
▁demands	-10.822
▁anticipated	-10.8221
▁settled	-10.8224
▁buyers	-10.8228
▁ranks	-10.823
▁Image	-10.8233
▁crazy	-10.8237
▁belt	-10.8238
▁clothes	-10.8241
▁Hay	-10.8242
▁equity	-10.8245
▁preserve	-10.8246
▁extent	-10.8247
▁challenged	-10.8249
▁tender	-10.825
▁expertise	-10.8251
ivity	-10.8252
▁businessman	-10.8255
▁hip	-10.8256
vie	-10.8258
▁stakeholders	-10.8268
▁ear	-10.8271
▁bread	-10.8282
▁Golf	-10.8283
▁grounds	-10.8284
▁introduce	-10.8289
made	-10.8289
▁Glen	-10.8289
▁Ker	-10.829
och	-10.8291
▁practical	-10.8294
▁emerging	-10.8294
▁Child	-10.8295
▁pending	-10.8297
▁Boise	-10.8308
▁Sand	-10.8309
eva	-10.831
▁Sri	-10.8311
▁Officers	-10.8311
▁competing	-10.8312
claim	-10.8318
▁divided	-10.8328
rap	-10.8335
▁soil	-10.8338
▁Idaho	-10.8339
▁comedy	-10.8342
▁stall	-10.8344
CT	-10.8346
▁Thi	-10.8346
▁Kid	-10.8352
▁burden	-10.8352
▁firearm	-10.8354
▁clown	-10.8357
▁referring	-10.8358
▁Internet	-10.8358
Al	-10.8366
▁throwing	-10.8368
PC	-10.8369
media	-10.8373
▁Ye	-10.8374
▁copy	-10.8376
▁Rod	-10.8377
Edition	-10.8378
▁63	-10.838
▁operators	-10.838
▁pollution	-10.8384
known	-10.8385
▁cooking	-10.8387
▁upper	-10.8387
);	-10.8392
▁dramatic	-10.8393
▁ISIS	-10.84
▁24-	-10.84
▁Warriors	-10.84
uru	-10.8402
▁Kris	-10.8406
▁letters	-10.8409
▁examination	-10.8411
-21	-10.8418
▁oversee	-10.8419
▁trigger	-10.842
▁load	-10.8421
▁interception	-10.8421
▁shake	-10.8424
OT	-10.8429
edu	-10.8432
▁strip	-10.8434
▁requested	-10.8436
▁cleared	-10.8438
▁donation	-10.8438
▁expanding	-10.8439
▁institution	-10.8439
▁Film	-10.8443
▁prayer	-10.8443
▁corporation	-10.8447
▁religion	-10.8447
▁context	-10.8447
▁participating	-10.8456
▁funded	-10.8456
cel	-10.8457
▁actors	-10.8457
OU	-10.8459
▁fumble	-10.8461
▁celebrating	-10.8465
▁screening	-10.8469
▁Kil	-10.8475
▁emphasis	-10.8483
▁empower	-10.8484
▁nationwide	-10.8485
▁(3	-10.8485
▁demonstrate	-10.8487
▁stance	-10.8488
▁duties	-10.8493
▁Wolf	-10.8493
▁promoting	-10.8497
▁spoken	-10.8499
▁Carr	-10.8503
makers	-10.8503
▁pump	-10.851
/2	-10.8514
-15	-10.8515
▁(7	-10.8517
▁Saints	-10.8518
▁terrorism	-10.852
▁yellow	-10.852
66	-10.8525
▁Access	-10.8527
▁crude	-10.8529
▁rap	-10.8531
▁brands	-10.8538
▁chase	-10.8539
kan	-10.8541
▁span	-10.8552
▁mood	-10.8554
eck	-10.8556
erman	-10.8556
▁Arsenal	-10.8556
TS	-10.8559
▁Ridge	-10.856
▁5-	-10.8562
ui	-10.8563
▁ninth	-10.8566
▁Urban	-10.8566
▁Vietnam	-10.857
▁Fan	-10.8573
▁approve	-10.8574
▁Print	-10.858
▁assess	-10.858
arm	-10.8582
▁terror	-10.8582
▁wider	-10.8586
▁slip	-10.8587
▁agricultural	-10.8588
▁destroy	-10.8589
▁terrorist	-10.859
UL	-10.8591
▁audit	-10.8593
▁spark	-10.8595
▁Kam	-10.8596
bor	-10.8597
▁fled	-10.8599
serv	-10.86
▁welfare	-10.8602
▁26,	-10.8606
▁expenses	-10.8608
▁Ky	-10.8608
▁membership	-10.8613
▁dump	-10.8614
ith	-10.8619
▁Perhaps	-10.8621
tech	-10.8623
▁begun	-10.8624
▁Commerce	-10.8625
▁SA	-10.8625
▁Tam	-10.8626
▁goods	-10.8628
▁situations	-10.8629
orn	-10.8631
▁lifestyle	-10.8631
▁walls	-10.8632
▁survive	-10.8634
DF	-10.8635
▁speaker	-10.8638
▁shall	-10.8639
immer	-10.8641
▁abortion	-10.8644
▁Dem	-10.8647
▁witnesses	-10.8649
▁tweeted	-10.865
▁lone	-10.8654
▁roster	-10.8655
▁unexpected	-10.8658
mile	-10.866
▁origin	-10.8663
kers	-10.8663
▁hero	-10.8666
▁Assistant	-10.8667
▁Fed	-10.8675
▁brothers	-10.8679
▁noon	-10.868
lot	-10.8685
▁decor	-10.8688
ros	-10.8689
▁Mail	-10.869
▁Louisville	-10.8692
oni	-10.8692
holder	-10.8693
▁admission	-10.8695
Ha	-10.8698
▁apparent	-10.8699
▁Dam	-10.8699
300	-10.8705
▁explains	-10.8706
▁knocked	-10.8706
Com	-10.8707
▁cheap	-10.8707
▁recover	-10.8709
▁18-	-10.8711
wen	-10.8717
▁fi	-10.8719
▁listening	-10.8719
burn	-10.8721
▁Shar	-10.8722
▁mess	-10.8724
▁scholarship	-10.8728
▁boast	-10.8728
▁cabinet	-10.8733
▁cameras	-10.8733
hard	-10.8736
▁WASHINGTON	-10.8737
▁Hor	-10.8741
flow	-10.8744
▁(5	-10.8746
tta	-10.8748
▁spots	-10.8749
▁(6	-10.8749
▁tool	-10.8752
rry	-10.8753
▁NDC	-10.8759
▁packed	-10.8775
▁differ	-10.8777
graph	-10.8779
just	-10.878
▁cha	-10.8782
▁Seven	-10.8783
▁Bennett	-10.8783
▁height	-10.8784
▁Cap	-10.8786
▁impressed	-10.8789
▁19,	-10.8791
▁Sport	-10.8795
▁Caribbean	-10.8797
▁scar	-10.8804
▁parliamentary	-10.8804
▁hunting	-10.8807
▁mill	-10.8811
▁robbery	-10.8813
▁thoughts	-10.8815
▁licence	-10.8816
▁expression	-10.882
▁Control	-10.8821
lat	-10.8826
member	-10.8826
▁Gor	-10.8827
ifying	-10.8827
▁discount	-10.8836
hall	-10.8836
▁Bat	-10.8836
turn	-10.8837
▁routine	-10.884
▁demanding	-10.8844
▁uniform	-10.8844
front	-10.8845
▁Final	-10.8848
▁singing	-10.885
▁raid	-10.8859
▁hub	-10.8862
▁threatening	-10.8862
▁Register	-10.8863
▁fairly	-10.8867
school	-10.8867
▁refer	-10.8868
▁dressed	-10.8871
▁Brandon	-10.8872
Con	-10.8875
own	-10.8876
-13	-10.8876
▁tape	-10.888
iva	-10.888
PD	-10.8882
▁focusing	-10.8888
▁independence	-10.8889
▁Burn	-10.8893
▁household	-10.8897
▁mile	-10.8903
hin	-10.8904
▁commissioner	-10.8905
▁banned	-10.8908
▁citing	-10.8911
▁boot	-10.8913
▁Uni	-10.8913
direct	-10.8914
▁constant	-10.8916
agh	-10.8918
face	-10.8925
▁delivering	-10.8928
▁Dor	-10.8928
ele	-10.8931
▁ownership	-10.8932
▁topic	-10.8933
▁chamber	-10.8934
▁Malaysia	-10.8935
▁moon	-10.8937
▁movies	-10.8939
▁luxury	-10.8939
▁Player	-10.8941
▁Bus	-10.8947
tical	-10.8948
▁Spe	-10.895
▁expecting	-10.8952
▁28,	-10.8954
▁Mass	-10.8955
▁Tru	-10.8955
▁dynamic	-10.8958
ida	-10.8958
rian	-10.8958
▁amongst	-10.8967
▁diagnosed	-10.8971
▁Montreal	-10.8972
AF	-10.8979
▁Portland	-10.8981
▁stunning	-10.8982
▁Stars	-10.8984
▁Op	-10.8986
▁rating	-10.8986
▁witnessed	-10.8987
▁Silver	-10.8988
▁directors	-10.899
jan	-10.899
▁Mall	-10.8994
▁pit	-10.9001
fect	-10.9002
▁involve	-10.9002
aj	-10.9004
▁machines	-10.9006
▁wounded	-10.9006
py	-10.9007
▁Dick	-10.9007
▁producing	-10.9008
▁longtime	-10.9009
▁Barr	-10.9014
▁Whether	-10.9014
▁Was	-10.9016
▁2-	-10.902
▁steady	-10.902
▁statistics	-10.902
▁sees	-10.9025
mission	-10.9033
ption	-10.9033
▁Oil	-10.9035
▁alliance	-10.9039
▁enjoying	-10.9042
PR	-10.9045
▁salary	-10.9045
▁Egypt	-10.9046
rum	-10.9047
far	-10.9048
▁bedroom	-10.9049
pet	-10.9053
▁leak	-10.9053
km	-10.9055
verse	-10.9057
▁lu	-10.9059
ase	-10.9059
▁Falls	-10.9061
-11	-10.9061
▁ministers	-10.9062
▁convert	-10.9063
▁implemented	-10.9066
▁withdraw	-10.9066
igan	-10.9068
▁dish	-10.9069
▁democratic	-10.9076
▁wildlife	-10.9078
▁hire	-10.908
lands	-10.908
▁Duke	-10.908
▁attacking	-10.9082
▁Aaron	-10.9083
▁Cameron	-10.9088
ddy	-10.909
▁CLICK	-10.9092
▁pub	-10.9096
▁qualify	-10.9097
▁Met	-10.9097
▁Collins	-10.9098
▁earth	-10.91
IP	-10.9101
▁memorial	-10.9102
maker	-10.9104
▁tested	-10.9106
▁till	-10.9106
ua	-10.9107
▁Tyler	-10.9109
▁Ever	-10.911
▁Sy	-10.9115
pers	-10.9116
▁handful	-10.9117
78	-10.9121
used	-10.9123
▁CB	-10.9124
▁regions	-10.9125
▁unclear	-10.9125
hon	-10.9127
▁suddenly	-10.9133
rey	-10.9133
67	-10.9134
▁primarily	-10.9136
▁Check	-10.9139
▁strange	-10.9139
nell	-10.914
▁Tea	-10.914
▁cricket	-10.9146
▁ADVERTISEMENT	-10.915
▁appoint	-10.9151
▁Turner	-10.9154
▁Neil	-10.9157
TH	-10.9157
▁Guardian	-10.9157
▁Bol	-10.9158
▁detect	-10.9162
zen	-10.9162
▁basically	-10.9162
▁UC	-10.9164
▁virus	-10.9165
PL	-10.9167
see	-10.9169
▁dam	-10.9171
▁tiny	-10.9172
▁Roberts	-10.9174
▁2002	-10.9174
▁conversion	-10.9175
▁Pay	-10.9177
LC	-10.9177
▁workforce	-10.9179
▁slowly	-10.918
ech	-10.9181
▁1970	-10.9181
band	-10.9181
▁stroke	-10.9182
▁stages	-10.9185
▁frequently	-10.9185
ridge	-10.9186
▁Nana	-10.9188
▁recipe	-10.9189
▁operational	-10.9191
▁Au	-10.9198
▁bitter	-10.9199
▁Phoenix	-10.9199
▁overcome	-10.92
▁lake	-10.9203
▁tri	-10.9204
▁sauce	-10.9204
▁defined	-10.9205
▁centres	-10.9213
▁op	-10.9213
▁remote	-10.9214
▁Ocean	-10.9214
rid	-10.9216
▁donate	-10.9216
▁mentor	-10.9217
▁LGBT	-10.9222
▁pie	-10.9222
CS	-10.9225
▁highlighted	-10.9226
▁somewhere	-10.9233
▁£5	-10.9234
▁Keith	-10.9234
▁depend	-10.9238
▁Max	-10.9238
ille	-10.9239
▁instrument	-10.9242
acre	-10.9247
▁developer	-10.9247
▁consumption	-10.9248
▁restrictions	-10.9249
▁sponsored	-10.9249
▁7:30	-10.925
▁Poll	-10.9253
▁Relations	-10.9253
▁summit	-10.9254
▁PC	-10.9256
▁Danny	-10.9257
▁tower	-10.9257
breaking	-10.9258
▁2,000	-10.9258
▁glad	-10.9258
kh	-10.9259
▁normally	-10.926
▁Angel	-10.9262
▁Hon	-10.9262
▁3-2	-10.9264
▁studying	-10.9268
▁Temple	-10.9269
▁videos	-10.9272
emi	-10.9272
DS	-10.9279
▁designer	-10.9282
▁developers	-10.9287
▁equally	-10.9288
▁Beck	-10.929
▁Hindu	-10.9293
▁dining	-10.9296
▁picking	-10.9298
▁bars	-10.9303
▁barely	-10.9304
▁Walk	-10.9305
▁Sat	-10.9307
▁McCa	-10.9311
▁AG	-10.9312
▁Box	-10.9316
▁managers	-10.9316
▁integrity	-10.9317
200	-10.932
eau	-10.932
▁knife	-10.9322
var	-10.9323
▁aspect	-10.9325
▁demanded	-10.9325
▁Sound	-10.9325
▁sand	-10.9327
▁ambulance	-10.9327
▁Atlanta	-10.9327
▁efficiency	-10.9327
rang	-10.933
▁bone	-10.9332
▁Cougars	-10.9332
▁tear	-10.9332
▁postseason	-10.9335
▁Bruce	-10.9339
▁fitness	-10.9342
▁repeat	-10.9346
▁vessel	-10.9347
▁heritage	-10.9347
▁transactions	-10.9347
▁saving	-10.9348
look	-10.9349
fit	-10.935
▁administrator	-10.9352
▁trends	-10.9353
▁supports	-10.9358
ique	-10.9358
▁Run	-10.9359
bble	-10.936
▁rein	-10.936
▁Gal	-10.936
▁Trudeau	-10.9367
▁Francis	-10.9369
▁interim	-10.937
▁Marshall	-10.9372
lov	-10.9373
▁Liberty	-10.9376
▁sail	-10.9379
▁DE	-10.9379
▁quit	-10.938
ony	-10.938
▁horror	-10.9381
▁silence	-10.9381
▁lane	-10.9386
▁Authorities	-10.9387
▁entrance	-10.9387
▁Brook	-10.9388
▁drinks	-10.9388
ora	-10.9388
anne	-10.9391
▁crews	-10.9395
▁booked	-10.9396
cies	-10.9399
Mi	-10.9399
86	-10.9402
▁Jam	-10.9403
▁realized	-10.9404
▁blog	-10.9412
▁2017,	-10.9412
▁Theresa	-10.9413
▁requests	-10.9417
▁Row	-10.942
unk	-10.9423
ement	-10.9423
▁l	-10.9424
▁grass	-10.9428
▁85	-10.9428
▁cyber	-10.9431
▁Lang	-10.9438
billion	-10.9439
▁Edinburgh	-10.9441
▁Oxford	-10.9441
▁employers	-10.9442
▁27,	-10.9443
▁acknowledge	-10.9448
▁tourists	-10.9448
▁converted	-10.9449
▁hundred	-10.9451
▁locally	-10.9453
▁flavor	-10.9462
▁Greater	-10.9464
▁profits	-10.9466
ico	-10.9466
▁Small	-10.9467
▁Cancer	-10.9468
▁Romania	-10.9468
▁migrants	-10.947
▁survived	-10.9472
core	-10.9479
now	-10.949
▁chat	-10.949
▁generations	-10.9492
▁Spring	-10.9495
ope	-10.95
▁funny	-10.9501
▁temperatures	-10.9502
asi	-10.9506
▁birds	-10.9508
▁financing	-10.951
▁Jamie	-10.951
unch	-10.9513
▁addressing	-10.9514
▁outlets	-10.9515
▁scenes	-10.9517
pay	-10.952
▁container	-10.9521
berry	-10.9523
party	-10.9523
▁Ian	-10.9523
awa	-10.9525
▁prompted	-10.9525
▁Beau	-10.9528
▁AL	-10.9529
▁revenues	-10.9534
▁Games	-10.9536
▁predicted	-10.9541
▁shareholders	-10.9547
▁Turkish	-10.9547
▁Stanford	-10.9553
▁offence	-10.9554
▁prop	-10.9559
▁29,	-10.9561
▁annually	-10.9562
▁Keep	-10.9563
udge	-10.9565
▁95	-10.9565
▁Anne	-10.9573
▁participated	-10.9576
ancy	-10.9577
▁luck	-10.9577
▁vendors	-10.9577
▁Events	-10.9577
▁root	-10.9579
69	-10.9579
▁assume	-10.958
▁rolled	-10.9581
scale	-10.9583
▁pepper	-10.9587
▁Douglas	-10.9587
▁processes	-10.9588
dding	-10.9591
▁Amendment	-10.9598
▁compromise	-10.9598
▁provincial	-10.9598
▁Ger	-10.9598
▁courts	-10.9602
▁install	-10.9605
▁Stan	-10.9606
97	-10.9611
▁pledge	-10.9612
▁Agreement	-10.9613
▁£4	-10.9616
▁windows	-10.9617
▁Swiss	-10.9618
▁Victor	-10.962
▁Eli	-10.9623
79	-10.9628
▁installed	-10.9629
▁underway	-10.9629
▁rear	-10.963
▁Comp	-10.9631
post	-10.9632
▁fixture	-10.9634
fall	-10.9634
zing	-10.9636
▁https	-10.9637
TER	-10.9638
▁respective	-10.9638
▁ethnic	-10.9638
▁Housing	-10.9639
▁burning	-10.9648
▁discrimination	-10.9648
▁covers	-10.9649
/16	-10.9651
▁entitled	-10.9654
▁Securities	-10.9659
nam	-10.9661
▁AM	-10.9661
imp	-10.9664
▁departments	-10.9669
▁suspension	-10.9669
▁blind	-10.967
new	-10.9672
rail	-10.9675
stead	-10.9677
▁76	-10.9683
▁depending	-10.9684
▁continent	-10.9685
▁Modi	-10.9689
▁bound	-10.9691
▁writes	-10.9693
▁smartphone	-10.9695
▁Protection	-10.9695
horn	-10.9696
▁Charlie	-10.9697
▁referee	-10.9698
▁tracks	-10.9698
▁narrative	-10.97
team	-10.9701
▁wound	-10.9704
▁intersection	-10.9705
anda	-10.9708
stitution	-10.971
▁outfit	-10.971
boy	-10.9714
▁passionate	-10.9718
uni	-10.9718
▁incredibly	-10.972
▁childhood	-10.9722
▁acquired	-10.9723
▁protecting	-10.9726
range	-10.9727
▁supporter	-10.9731
tty	-10.9732
▁offences	-10.9733
▁unbeaten	-10.9736
▁rental	-10.9738
▁powers	-10.974
▁Tanzania	-10.9741
▁73	-10.9745
▁Atlantic	-10.9746
lier	-10.9751
▁Gill	-10.9751
▁Pol	-10.9751
EX	-10.9753
sses	-10.9754
RS	-10.9755
▁medication	-10.9756
▁Speaker	-10.9756
▁funeral	-10.9756
ude	-10.9757
▁assured	-10.9758
▁steal	-10.9759
Now	-10.9761
ori	-10.9763
▁critics	-10.9767
TON	-10.9768
▁Herald	-10.9772
▁Policy	-10.9772
vas	-10.9775
▁slot	-10.9776
▁locked	-10.9777
▁habit	-10.9777
izz	-10.9778
▁disrupt	-10.9778
▁elderly	-10.9779
▁Transport	-10.978
▁fence	-10.9782
▁activist	-10.9782
izer	-10.9784
TC	-10.9785
▁Dal	-10.9785
▁legs	-10.9785
oph	-10.9786
▁exposure	-10.9787
▁transaction	-10.9787
▁Independent	-10.979
▁portray	-10.9793
▁Warren	-10.9796
▁judicial	-10.9796
▁III	-10.9798
▁tired	-10.98
▁resolve	-10.98
▁decent	-10.9802
▁operates	-10.9804
adi	-10.9809
▁conversations	-10.981
▁somewhat	-10.9813
bat	-10.9813
▁refugee	-10.9814
▁guns	-10.9816
▁photograph	-10.9818
▁gig	-10.9818
▁mask	-10.9818
▁Ros	-10.9819
▁Latin	-10.982
▁reserve	-10.9822
▁breakfast	-10.9824
Electoral	-10.9824
▁weigh	-10.9825
▁appearances	-10.9827
ugg	-10.9828
▁economist	-10.9829
you	-10.983
▁helicopter	-10.9834
▁Chase	-10.9838
▁introduction	-10.9839
▁typical	-10.9841
oper	-10.9841
▁Broad	-10.9844
shot	-10.9845
gov	-10.9847
▁controversy	-10.985
▁Carroll	-10.985
ault	-10.9853
▁sacrifice	-10.9855
rack	-10.9858
▁Maria	-10.9859
▁possess	-10.9864
▁Early	-10.9866
▁scientific	-10.987
▁Globe	-10.987
▁Fer	-10.9873
▁victories	-10.9876
▁puck	-10.9877
▁iron	-10.9877
dom	-10.9877
▁74	-10.988
▁Bor	-10.9882
▁Mun	-10.9885
▁Wing	-10.9886
▁Beat	-10.9886
▁Rich	-10.989
▁exception	-10.989
.50	-10.9892
▁solo	-10.9893
hoo	-10.9893
▁describe	-10.9894
nut	-10.9895
▁chi	-10.9895
▁Mont	-10.9896
▁Barcelona	-10.9897
▁Sad	-10.9898
▁Nathan	-10.9898
▁keeps	-10.9902
▁Operation	-10.9902
▁Franklin	-10.9903
iff	-10.9907
▁urgent	-10.9908
aki	-10.9909
▁anymore	-10.991
▁maintaining	-10.9911
▁Corn	-10.9912
▁fundraiser	-10.9912
▁seeks	-10.9913
▁crossing	-10.9915
▁sexually	-10.9915
rist	-10.9916
FF	-10.9919
▁instruction	-10.9922
▁updated	-10.9925
▁Cole	-10.9929
▁adequate	-10.9933
▁semester	-10.9933
OP	-10.9938
▁frustration	-10.9939
▁promising	-10.9944
▁targeting	-10.9946
▁courses	-10.9946
▁temperature	-10.9948
SO	-10.9954
▁Hispanic	-10.9954
▁brutal	-10.9954
-18	-10.9955
▁diet	-10.9956
▁wrap	-10.9956
▁feelings	-10.996
ALL	-10.9961
▁factory	-10.9961
▁alter	-10.9962
▁forever	-10.9964
▁GP	-10.9971
▁Vin	-10.9971
▁Parker	-10.9973
▁pedestrian	-10.9975
▁600	-10.9976
▁progressive	-10.9984
▁priorities	-10.9988
▁rough	-10.999
▁pm	-10.9991
cock	-10.9991
▁administrative	-10.9991
▁forcing	-10.9992
▁Brand	-10.9993
▁moderate	-10.9993
▁strikes	-10.9994
each	-10.9996
▁reject	-10.9998
▁Hunt	-11
▁nervous	-11.0002
▁Antonio	-11.0002
▁Express	-11.0003
▁mate	-11.0004
▁observed	-11.0005
64	-11.0007
▁Fisher	-11.0007
▁praised	-11.0007
had	-11.0008
▁everywhere	-11.0014
▁Bradley	-11.0015
▁terrible	-11.0018
▁Accra	-11.0018
▁catches	-11.0021
▁Fin	-11.0022
▁pose	-11.0023
▁anxiety	-11.0023
rose	-11.0026
▁Reid	-11.0027
▁rebel	-11.0027
▁cop	-11.003
▁titles	-11.0031
▁Hope	-11.0033
▁parks	-11.0036
▁Coll	-11.0036
▁Berkeley	-11.0039
▁consent	-11.0039
▁conservation	-11.0044
▁Alexander	-11.0045
▁ID	-11.0046
▁Agriculture	-11.005
▁punch	-11.005
▁differences	-11.0052
Pro	-11.0053
▁shadow	-11.0055
▁answers	-11.0056
▁costumes	-11.0057
▁RM	-11.0058
▁disappointing	-11.0061
roll	-11.0062
▁delays	-11.0063
▁FOR	-11.0067
▁Kumar	-11.0068
▁procedures	-11.0073
home	-11.0077
ulation	-11.0079
▁Race	-11.0079
Go	-11.008
ben	-11.0081
▁Huskies	-11.0082
▁bathroom	-11.0082
▁Terry	-11.0083
▁error	-11.0085
▁viewers	-11.0086
▁Members	-11.0087
▁facilitate	-11.0087
72	-11.0087
▁fat	-11.009
▁pulling	-11.0093
▁Mat	-11.0094
▁fields	-11.0094
▁Christopher	-11.0098
▁perfectly	-11.0106
hear	-11.011
FL	-11.0117
▁drill	-11.0118
▁Watson	-11.0119
gene	-11.0119
▁infection	-11.0125
▁unfair	-11.0126
How	-11.0127
▁chant	-11.0128
▁keeper	-11.0128
▁Huddersfield	-11.013
▁explosion	-11.013
▁float	-11.013
itation	-11.0131
CB	-11.0134
▁Lynn	-11.0135
▁DJ	-11.0137
▁Winnipeg	-11.014
▁carrier	-11.0142
▁Sin	-11.0143
▁Bab	-11.0144
▁10,000	-11.0146
After	-11.0147
aging	-11.0149
▁Thu	-11.015
▁liquid	-11.0151
▁Trail	-11.0151
▁Villa	-11.0154
▁shocked	-11.0156
71	-11.0162
▁pure	-11.0164
▁rice	-11.0164
▁Pop	-11.0165
Not	-11.017
▁regret	-11.0173
▁securities	-11.0173
Ra	-11.0175
▁lessons	-11.0175
▁programmes	-11.0176
▁honored	-11.0176
▁strategies	-11.0178
▁Mull	-11.018
ime	-11.0182
▁Major	-11.0183
:15	-11.0189
74	-11.0194
▁restrict	-11.0198
hit	-11.0199
GA	-11.0202
▁foster	-11.0205
▁generated	-11.0206
ended	-11.021
▁writers	-11.0211
▁accessible	-11.0215
▁Zimbabwe	-11.0216
▁badly	-11.0216
▁employed	-11.0218
▁Kenyan	-11.022
def	-11.0224
▁Billy	-11.0224
▁villages	-11.0225
▁Further	-11.0226
▁certificate	-11.0227
▁duo	-11.0229
▁lighting	-11.0231
▁exploration	-11.0237
▁recreational	-11.0238
▁Gil	-11.0238
▁Cast	-11.0238
▁LLC	-11.024
▁pad	-11.024
bla	-11.0245
400	-11.0245
▁Need	-11.0247
▁Pur	-11.0247
▁complain	-11.0249
-16	-11.0249
▁Standing	-11.0251
▁butter	-11.0257
live	-11.0258
▁attempting	-11.026
▁Labor	-11.0264
▁Sav	-11.0265
▁guitar	-11.0266
ying	-11.0266
▁networks	-11.0266
▁arch	-11.0267
▁ON	-11.0269
▁Hughes	-11.0272
▁relatives	-11.0273
▁engaging	-11.0281
▁Standard	-11.0281
▁Tax	-11.0282
▁criticized	-11.0283
▁consistently	-11.0286
▁accommodation	-11.0286
▁versus	-11.0286
▁Smart	-11.0287
▁Hunter	-11.0287
▁Hai	-11.0288
▁$15	-11.0288
▁Fre	-11.0289
▁Have	-11.0289
▁achievement	-11.029
▁revolution	-11.0292
▁belong	-11.0292
▁longest	-11.0294
▁invested	-11.0294
▁Guardiola	-11.0297
anga	-11.0298
ground	-11.0298
▁Shaw	-11.03
▁attractive	-11.03
EST	-11.0302
▁Palace	-11.0309
ann	-11.031
▁scan	-11.0311
▁SP	-11.0312
▁accompanied	-11.0313
▁Right	-11.0314
▁sufficient	-11.0317
iest	-11.0318
▁remarkable	-11.0319
▁striking	-11.0319
▁categories	-11.0319
▁pray	-11.0319
▁Vote	-11.0323
▁Review	-11.0324
▁grabbed	-11.0325
▁Classic	-11.0328
ERS	-11.033
▁Kha	-11.0335
▁SE	-11.0336
rov	-11.0337
▁installation	-11.0338
▁widespread	-11.0341
▁traveling	-11.0341
▁Tribune	-11.0341
▁lakh	-11.0341
▁Sheffield	-11.0346
▁proceedings	-11.0347
▁(8	-11.0349
▁departure	-11.0352
▁punish	-11.0353
Me	-11.0353
▁liked	-11.0354
▁fulfill	-11.036
▁guidance	-11.0363
jack	-11.0368
▁tips	-11.0369
:45	-11.0369
▁UP	-11.0369
Car	-11.0372
▁Writer	-11.0374
▁Rev	-11.0374
▁Gate	-11.0374
▁triumph	-11.0379
nar	-11.0381
▁papers	-11.0382
▁twist	-11.0385
▁eager	-11.039
▁urging	-11.039
▁dive	-11.0393
onic	-11.0395
▁Federation	-11.0396
▁Convention	-11.0396
▁Philippine	-11.0402
▁towns	-11.0403
▁answered	-11.0405
▁verdict	-11.0407
▁Officials	-11.0407
▁searching	-11.0414
woman	-11.0415
▁Sel	-11.0416
▁guidelines	-11.0418
part	-11.042
▁$20	-11.0424
▁hopeful	-11.0425
▁condo	-11.0428
▁Start	-11.0429
▁bird	-11.0431
▁hu	-11.0432
friendly	-11.0433
▁Qua	-11.0434
▁repeated	-11.0438
▁rid	-11.0441
▁convinced	-11.0444
▁Buffalo	-11.0445
▁backing	-11.0446
▁cattle	-11.0447
▁hardly	-11.0448
▁UW	-11.0448
▁harassment	-11.0452
▁Find	-11.0453
sted	-11.0454
num	-11.0461
▁14-	-11.0463
▁Heat	-11.0466
▁felony	-11.0467
▁symptoms	-11.0469
▁prohibit	-11.0469
▁surprising	-11.047
▁bunch	-11.0472
▁drone	-11.0473
Posted	-11.0477
▁exceptional	-11.0478
▁Islam	-11.048
▁calendar	-11.0484
ifi	-11.0485
ously	-11.049
▁refuse	-11.049
fr	-11.049
lyn	-11.0493
▁letting	-11.0494
▁tale	-11.0495
▁suspicion	-11.0495
▁LA	-11.0496
▁Action	-11.0497
▁matchup	-11.0499
▁Tower	-11.0499
▁lab	-11.05
shirt	-11.05
▁gather	-11.0504
▁preliminary	-11.0512
▁hill	-11.0517
▁Scot	-11.052
eu	-11.0521
stin	-11.0524
match	-11.0528
▁bonds	-11.0529
▁Madison	-11.0529
89	-11.0538
▁explosive	-11.054
▁attraction	-11.054
▁feedback	-11.0542
zar	-11.0542
▁unprecedented	-11.0545
▁disabled	-11.0545
▁investigated	-11.0546
▁chill	-11.0547
▁ga	-11.0548
▁abandoned	-11.0559
▁bullet	-11.056
▁Qui	-11.056
▁oppose	-11.0561
▁McDonald	-11.0562
▁Say	-11.0566
▁boxes	-11.0566
uous	-11.0568
▁Citizen	-11.0568
body	-11.0573
▁earthquake	-11.0573
▁Dow	-11.0574
grade	-11.0577
▁shoes	-11.058
▁amounts	-11.058
▁spray	-11.0581
have	-11.0582
▁Pine	-11.0584
▁arrangements	-11.0586
fresh	-11.0586
brook	-11.0588
treat	-11.0589
ranked	-11.0589
cover	-11.0591
▁distributed	-11.0591
▁lifetime	-11.0596
▁del	-11.0597
▁essentially	-11.0598
▁deployed	-11.0599
▁Susan	-11.06
▁thin	-11.0601
800	-11.0602
▁input	-11.0602
open	-11.0603
vic	-11.0604
▁Castle	-11.0605
race	-11.0606
third	-11.0607
▁concrete	-11.0607
▁Latino	-11.0611
▁Jimmy	-11.0614
▁Julie	-11.0615
▁Cohen	-11.0621
▁Sudan	-11.0625
▁mode	-11.0627
▁excuse	-11.0629
▁Aug	-11.063
▁pledged	-11.0633
▁carefully	-11.0635
▁item	-11.0636
▁knock	-11.0636
digit	-11.0637
▁Blues	-11.064
▁Raiders	-11.0641
▁outlook	-11.0641
▁GNA	-11.0642
▁constituency	-11.0646
▁nurse	-11.0647
▁detective	-11.0648
▁odds	-11.0656
▁embrace	-11.0657
▁literally	-11.0658
▁lying	-11.066
erg	-11.0661
fra	-11.0662
bul	-11.0662
▁stem	-11.0663
une	-11.0663
▁beef	-11.0665
▁Low	-11.0666
aba	-11.0667
▁ghost	-11.067
▁renewable	-11.067
84	-11.0671
Fi	-11.0673
▁substitute	-11.0675
▁Laura	-11.0682
▁boom	-11.0682
▁proof	-11.0684
kill	-11.0685
▁Hurricane	-11.0686
▁thick	-11.0686
▁neighbors	-11.0687
▁classified	-11.0688
▁cancel	-11.0695
▁pizza	-11.0697
osa	-11.0699
▁Design	-11.0701
▁Industry	-11.0703
Po	-11.0703
▁rarely	-11.0705
▁Bryant	-11.0706
▁collapse	-11.0708
▁silent	-11.0709
▁checks	-11.0715
▁Mars	-11.0716
▁shame	-11.0717
▁communicate	-11.072
▁processing	-11.0721
▁clip	-11.0721
▁Presidential	-11.0721
▁toilet	-11.0721
▁engineer	-11.0723
oz	-11.0726
▁midfield	-11.0728
▁agreements	-11.0728
ien	-11.0728
▁corn	-11.0729
aria	-11.0731
uz	-11.0732
non	-11.0735
▁politician	-11.0736
▁retire	-11.0739
ather	-11.0741
▁investor	-11.0743
▁girlfriend	-11.0743
▁equality	-11.0744
road	-11.0753
▁WA	-11.0753
▁Owen	-11.0753
▁insult	-11.0756
idi	-11.0757
▁Grove	-11.0758
wall	-11.0759
▁autumn	-11.076
▁gross	-11.076
▁meanwhile	-11.076
▁scrap	-11.0761
card	-11.0762
▁critic	-11.0764
sburg	-11.0766
▁clinch	-11.0771
▁advert	-11.0771
▁Gulf	-11.0774
▁delayed	-11.0776
▁Bart	-11.0776
▁Organization	-11.0777
▁cable	-11.078
eth	-11.0783
▁Planning	-11.0785
▁governance	-11.0789
▁personality	-11.079
lick	-11.0792
▁racism	-11.0794
▁Solutions	-11.0794
Just	-11.0795
▁kit	-11.0807
▁voices	-11.0808
▁chest	-11.0809
▁Kat	-11.0815
▁anyway	-11.0815
▁replied	-11.0817
▁projected	-11.0817
▁musicians	-11.0818
▁contains	-11.082
▁Tur	-11.082
▁premier	-11.082
▁occasions	-11.082
tier	-11.0821
▁interviews	-11.0822
▁ambassador	-11.0823
▁suspicious	-11.0823
▁retailers	-11.0826
▁Jeremy	-11.0829
▁Sydney	-11.0829
▁stability	-11.0829
▁bump	-11.083
▁Choi	-11.0831
▁transferred	-11.0837
▁Pass	-11.0838
▁conspiracy	-11.084
▁Natural	-11.084
▁Instagram	-11.0846
▁unemployment	-11.0846
▁telephone	-11.0852
vil	-11.0852
▁bias	-11.0853
▁hook	-11.0855
rent	-11.0856
▁Heritage	-11.0857
▁rapidly	-11.0859
▁Rogers	-11.0859
▁sanctions	-11.086
▁counterpart	-11.0861
▁Kenny	-11.0865
▁magic	-11.0867
▁Hin	-11.0868
▁Corps	-11.0868
▁physically	-11.0869
▁attracted	-11.0869
iser	-11.0872
▁involves	-11.0877
▁examine	-11.0879
▁Challenge	-11.088
lip	-11.0882
▁Lisa	-11.0883
▁sample	-11.0884
that	-11.0886
▁blamed	-11.0892
▁breed	-11.0893
▁suggesting	-11.0894
▁Bernie	-11.0894
▁blend	-11.0899
link	-11.0899
▁strain	-11.0902
▁pregnant	-11.0904
▁disagree	-11.0905
UP	-11.0906
▁NT	-11.0906
▁Stein	-11.091
▁methods	-11.0911
▁recognise	-11.0915
▁somehow	-11.0916
▁meals	-11.0916
▁Ob	-11.0917
▁trips	-11.0918
▁Later	-11.0918
▁Know	-11.0918
▁landed	-11.0919
▁reforms	-11.0919
▁Campus	-11.0919
▁wanting	-11.0924
▁Legislature	-11.0927
▁handled	-11.0929
▁locker	-11.0929
▁Abe	-11.093
▁exam	-11.093
▁governing	-11.093
▁Ry	-11.0931
▁Copyright	-11.0932
▁cow	-11.0933
▁cinema	-11.0933
tell	-11.0934
awn	-11.0935
▁restore	-11.0939
▁Chan	-11.0941
▁da	-11.0944
▁cells	-11.0946
▁links	-11.0948
▁Tal	-11.0948
lift	-11.0949
▁therapy	-11.095
backs	-11.095
▁78	-11.0956
▁convention	-11.0956
erry	-11.0957
Brien	-11.0958
itor	-11.0959
▁shell	-11.0959
tha	-11.096
▁brave	-11.0965
-17	-11.0969
▁Without	-11.097
▁threaten	-11.097
▁investing	-11.0974
▁documentary	-11.0978
▁nationally	-11.0978
▁chronic	-11.0979
lib	-11.0982
▁wore	-11.0986
▁Euro	-11.099
▁comeback	-11.0995
▁ingredients	-11.0995
▁purposes	-11.0997
While	-11.0998
▁OF	-11.1005
▁Data	-11.1008
▁Wo	-11.1011
▁defendant	-11.1012
▁Environmental	-11.1012
bridge	-11.1014
▁Defence	-11.1014
▁tenure	-11.1017
▁comparison	-11.102
▁Kin	-11.1024
▁drag	-11.1025
▁Pet	-11.1025
▁charter	-11.1028
▁1960	-11.1029
▁(20	-11.1031
lining	-11.1032
▁updates	-11.1032
▁Wells	-11.1033
bby	-11.1034
stand	-11.104
bur	-11.1041
▁Sometimes	-11.1042
▁Albert	-11.1043
▁requirement	-11.1046
▁Lar	-11.1053
▁Wildcats	-11.1055
▁Sk	-11.1058
▁interaction	-11.1058
▁proceeds	-11.1065
▁smell	-11.1067
▁qualifying	-11.1073
▁Friends	-11.1074
▁ordinary	-11.1079
▁crossed	-11.1079
▁legend	-11.1079
▁everyday	-11.108
gie	-11.1082
most	-11.1084
▁Orleans	-11.1085
▁exports	-11.1086
▁sal	-11.1089
▁ranging	-11.1089
▁equivalent	-11.109
▁Lind	-11.1095
rink	-11.1098
▁Wade	-11.1099
▁output	-11.1105
▁Eight	-11.1106
▁indication	-11.1107
▁iconic	-11.1107
▁Trinity	-11.1108
▁Partnership	-11.111
assi	-11.1112
▁smoking	-11.1114
▁casino	-11.1114
▁praise	-11.1114
▁graduated	-11.1115
▁slice	-11.1117
▁Jews	-11.1119
▁holidays	-11.1121
city	-11.1121
▁Af	-11.1124
▁centers	-11.1127
▁Mills	-11.1128
▁ultimate	-11.113
▁Palestinian	-11.1134
▁Var	-11.1135
▁titled	-11.1135
▁formula	-11.1139
mates	-11.114
▁Others	-11.114
▁comic	-11.114
▁1-1	-11.1143
▁Moscow	-11.1144
▁ambition	-11.1144
▁Front	-11.1144
▁Edward	-11.1154
aught	-11.1156
▁gallery	-11.1162
▁77	-11.1163
▁exclusive	-11.1166
▁deny	-11.1166
▁hint	-11.1168
▁inches	-11.1169
Ba	-11.1171
▁temp	-11.1172
lves	-11.1174
rav	-11.1175
▁250	-11.1175
▁tag	-11.1177
▁manufacturers	-11.1182
▁curb	-11.1182
▁relation	-11.1184
▁Harrison	-11.1185
▁Roy	-11.1185
▁cater	-11.1186
81	-11.1189
▁(19	-11.119
▁gym	-11.1191
▁exact	-11.1194
▁integrated	-11.1196
page	-11.1196
borough	-11.12
▁Doug	-11.12
craft	-11.1206
▁dropping	-11.1206
▁constitution	-11.1209
▁billionaire	-11.121
▁Abu	-11.1212
▁estimate	-11.1215
▁Gla	-11.1215
▁Pittsburgh	-11.1215
▁violation	-11.1216
▁sensitive	-11.1219
▁Chair	-11.1221
▁Cost	-11.1228
▁angle	-11.1232
▁optimistic	-11.1233
▁Dennis	-11.1233
▁Shop	-11.1237
▁reserved	-11.1238
▁Henderson	-11.1239
CP	-11.1239
▁firefighters	-11.1242
▁Dog	-11.1242
▁2011,	-11.1243
▁odd	-11.1247
▁16-	-11.125
oi	-11.125
▁Connect	-11.1254
sized	-11.1256
▁phones	-11.1262
▁vowed	-11.1262
▁Wallace	-11.1264
▁skate	-11.1264
profit	-11.1272
▁relative	-11.1276
quality	-11.1278
▁ads	-11.1278
▁exploit	-11.1278
vor	-11.1279
▁minds	-11.1281
▁Emily	-11.1282
▁Highland	-11.1287
▁disclosed	-11.1295
▁sudden	-11.1297
▁spotted	-11.1301
▁NY	-11.1301
▁raw	-11.1302
▁arena	-11.1302
▁Christ	-11.1303
Obviously	-11.1305
Every	-11.1306
▁invite	-11.1306
▁Third	-11.1306
rine	-11.1309
▁Corporate	-11.1311
▁800	-11.1313
▁Bryan	-11.1314
▁operator	-11.1316
ector	-11.1316
▁Did	-11.1318
▁Wind	-11.1319
▁Northwest	-11.1319
▁Everyone	-11.1319
▁Todd	-11.1319
▁preferred	-11.1319
▁useful	-11.1322
73	-11.1329
▁challenger	-11.1329
▁compliance	-11.1329
▁battery	-11.1332
▁dancing	-11.1335
▁careful	-11.1338
▁borrow	-11.1338
87	-11.1339
▁closest	-11.1342
▁firing	-11.1342
▁prospects	-11.1346
▁topics	-11.1347
▁Short	-11.1348
east	-11.1351
▁trucks	-11.1351
▁routes	-11.1353
▁Nairobi	-11.1353
▁mutual	-11.1353
eye	-11.1353
cra	-11.1356
▁buses	-11.1357
▁inspire	-11.136
▁earning	-11.136
6,000	-11.1361
-2)	-11.1361
▁Hand	-11.1363
SD	-11.1366
▁jurisdiction	-11.1372
AB	-11.1372
hir	-11.1374
stop	-11.1377
▁Rome	-11.138
▁premises	-11.1381
▁cry	-11.1382
rock	-11.1384
▁headlines	-11.1384
▁Uber	-11.1384
ume	-11.1385
▁$25	-11.1385
which	-11.1388
▁enforce	-11.1388
▁Fred	-11.1388
▁Support	-11.1389
▁Newcastle	-11.139
▁Samuel	-11.139
▁radical	-11.139
▁Latest	-11.1394
▁utility	-11.1396
▁Voters	-11.1398
▁nursing	-11.1402
▁interior	-11.1402
▁combine	-11.1403
tile	-11.1406
▁Perry	-11.1409
▁imposed	-11.141
▁motivation	-11.1414
▁garage	-11.1414
▁Walter	-11.1416
▁Fish	-11.1418
stream	-11.1419
▁1999	-11.1419
▁headline	-11.142
▁transparency	-11.142
ega	-11.1422
▁Newton	-11.1423
▁Bear	-11.1424
▁hidden	-11.1426
▁transit	-11.1427
▁Representatives	-11.1431
▁Elementary	-11.1432
HO	-11.1434
▁pile	-11.1434
▁Use	-11.1436
▁Ok	-11.1439
▁Jane	-11.1452
▁Forum	-11.1455
▁Ski	-11.1456
▁Marc	-11.1464
▁Mul	-11.1465
▁Jen	-11.1466
▁organizer	-11.1466
nor	-11.1471
▁interact	-11.1472
▁Kay	-11.1474
▁bands	-11.1474
▁basket	-11.1475
▁fare	-11.1475
▁Massachusetts	-11.1475
▁capabilities	-11.1475
▁concerning	-11.1476
lett	-11.1477
▁filling	-11.1477
▁stopping	-11.1478
▁Partners	-11.1481
▁2019	-11.1484
ware	-11.1486
▁municipal	-11.1487
▁ranking	-11.1487
▁deemed	-11.1488
▁Maryland	-11.1494
▁detained	-11.1494
▁Med	-11.1496
serving	-11.1496
▁resist	-11.1505
▁qualifier	-11.1506
▁compound	-11.1507
EM	-11.1507
▁Appeal	-11.1512
rrell	-11.1515
Even	-11.1518
▁fame	-11.1518
▁Bir	-11.1519
▁speakers	-11.1521
▁withdrawal	-11.1522
▁swimming	-11.1525
▁tonnes	-11.1529
▁struggles	-11.153
service	-11.153
▁flights	-11.1531
mble	-11.1532
▁tribe	-11.1533
▁trace	-11.1534
▁whi	-11.1534
▁desk	-11.1536
▁burst	-11.1537
91	-11.1537
▁orange	-11.1538
▁mainstream	-11.1538
plus	-11.1538
Ho	-11.1539
▁Jerry	-11.1539
▁Logan	-11.1541
▁reviewed	-11.1542
▁fortunate	-11.1543
▁visible	-11.1543
UC	-11.1544
▁demonstrated	-11.155
▁Forward	-11.1552
▁depression	-11.1555
▁midnight	-11.1556
▁tears	-11.1557
▁AFP	-11.1557
▁fate	-11.1557
news	-11.1558
▁operated	-11.1559
▁dates	-11.156
▁enormous	-11.1561
▁Switzerland	-11.1561
▁Bishop	-11.1561
▁deadly	-11.1565
▁uncertainties	-11.1568
cate	-11.1571
found	-11.1573
▁Posted	-11.1574
▁Note	-11.1574
▁farming	-11.1577
▁royal	-11.158
loom	-11.1585
ites	-11.159
▁donors	-11.159
▁ward	-11.159
iling	-11.1592
▁viewed	-11.1596
keeper	-11.1596
▁Brit	-11.1599
▁Rec	-11.1599
▁brew	-11.1599
income	-11.16
▁Christie	-11.1601
▁Peterson	-11.1604
▁Fran	-11.1604
▁scared	-11.1609
▁Vol	-11.1611
▁Unfortunately	-11.1613
▁23-	-11.1614
▁layer	-11.1616
▁Video	-11.1617
▁Jennifer	-11.1617
▁Sgt	-11.1618
▁errors	-11.162
▁inspection	-11.1624
▁framework	-11.1624
▁hell	-11.1626
▁Crow	-11.1626
▁Warner	-11.1627
▁ankle	-11.1627
▁Round	-11.163
▁Magistrate	-11.163
▁tobacco	-11.163
▁resistance	-11.1631
▁turnovers	-11.1631
▁TH	-11.1633
▁Cle	-11.1635
▁1996	-11.1638
▁execution	-11.1642
▁Luis	-11.1645
▁Lau	-11.1645
▁desperate	-11.1647
▁rolling	-11.1648
▁diabetes	-11.1648
perform	-11.1649
▁Venture	-11.1649
▁crashed	-11.165
▁explanation	-11.1655
▁pill	-11.1655
leading	-11.1656
mut	-11.1658
hole	-11.1659
▁hanging	-11.1661
▁hide	-11.1662
▁Andre	-11.1662
▁Environment	-11.1663
▁principles	-11.1663
▁Kra	-11.1667
▁Rescue	-11.1667
▁lecture	-11.1671
weight	-11.1673
▁Singapore	-11.1673
▁01	-11.1674
▁surveillance	-11.168
▁touched	-11.168
▁branches	-11.1685
▁adventure	-11.1686
▁assembly	-11.1686
▁dishes	-11.1688
▁UM	-11.1689
▁taxi	-11.1693
ache	-11.1694
▁holes	-11.1695
mir	-11.1698
▁railway	-11.1701
▁McCl	-11.1706
▁Bet	-11.1707
▁Transportation	-11.1708
atch	-11.1708
▁Zach	-11.1709
store	-11.1711
▁admit	-11.1712
▁Leonard	-11.1712
▁deeper	-11.1714
▁impression	-11.1714
▁tennis	-11.1717
active	-11.1718
beat	-11.1721
▁recruiting	-11.1722
▁accommodate	-11.1723
▁robust	-11.1723
▁statewide	-11.1727
▁opposing	-11.173
▁reminded	-11.1732
kick	-11.1733
▁casual	-11.1736
▁seemingly	-11.1736
▁Lou	-11.174
▁representation	-11.1744
92	-11.1752
▁scary	-11.1753
▁Lawrence	-11.1755
CL	-11.1756
SL	-11.1759
▁counted	-11.176
▁festive	-11.1761
▁Mason	-11.1764
▁MI	-11.1764
▁nominated	-11.1766
▁accuracy	-11.1768
▁congressional	-11.1768
▁extraordinary	-11.1768
▁candy	-11.1768
▁depict	-11.1768
▁commence	-11.1774
▁households	-11.1775
▁appealing	-11.1775
heim	-11.1776
▁rot	-11.1776
▁Enterprise	-11.178
▁Dutch	-11.178
▁legislature	-11.1787
▁adjust	-11.1787
!"	-11.1787
▁arguments	-11.1792
▁pupils	-11.1794
elli	-11.1797
trick	-11.1797
▁Talk	-11.1797
▁Neither	-11.1799
▁Bannon	-11.1801
▁Look	-11.1803
▁complicated	-11.1803
▁prevail	-11.1806
▁Pad	-11.1807
▁turnover	-11.181
▁grants	-11.1811
▁description	-11.1812
▁Resort	-11.1812
▁external	-11.1812
▁timing	-11.1812
▁chart	-11.1813
▁diseases	-11.1815
AY	-11.1815
▁Kent	-11.1816
▁testified	-11.182
▁lifted	-11.1822
98	-11.1824
▁electorate	-11.1825
▁gut	-11.1828
▁element	-11.1829
who	-11.183
UT	-11.183
walk	-11.1831
▁rapid	-11.1832
▁belonging	-11.1832
▁Lock	-11.1832
▁Phillips	-11.1833
▁Auto	-11.1833
ato	-11.1835
▁folk	-11.1837
▁Channel	-11.1839
▁realise	-11.184
▁apple	-11.1841
▁concession	-11.1844
▁san	-11.1845
▁Stanley	-11.1853
▁Mir	-11.1857
▁Patrol	-11.1857
▁ignore	-11.1858
▁Dead	-11.1858
▁triple	-11.1861
▁22-	-11.1861
main	-11.1862
▁dominant	-11.1863
▁Barry	-11.1863
▁hack	-11.1863
▁trainer	-11.1866
▁spa	-11.1867
▁ocean	-11.1869
▁Rams	-11.1875
▁NATO	-11.1875
▁ramp	-11.1876
▁politically	-11.1876
▁$100	-11.188
▁Eagle	-11.1881
▁reflected	-11.1881
▁spur	-11.1884
▁buried	-11.1888
▁Vikings	-11.1889
▁Cardinals	-11.1889
▁twin	-11.189
▁quoted	-11.189
▁spill	-11.1891
Ver	-11.1893
▁1.5	-11.1895
real	-11.1895
▁actress	-11.1897
▁lean	-11.1897
cru	-11.1898
▁solely	-11.1903
▁trio	-11.1903
▁Gay	-11.1906
▁difficulties	-11.1907
ART	-11.1911
▁Larry	-11.1912
▁overwhelming	-11.1913
rah	-11.1913
▁removal	-11.1914
▁hiring	-11.1914
▁prevention	-11.1915
Un	-11.1915
▁Din	-11.1916
▁sustain	-11.1918
▁Math	-11.192
▁incorporate	-11.192
▁pipe	-11.1923
▁popularity	-11.1923
▁reliable	-11.1927
▁Fame	-11.1929
▁Along	-11.1929
wear	-11.1938
000	-11.1939
▁Nik	-11.1949
▁Sandusky	-11.1952
ncy	-11.1953
▁sorry	-11.1955
▁Hot	-11.1958
▁Spi	-11.1958
▁Article	-11.1959
▁attached	-11.1959
▁Mile	-11.1959
▁Girls	-11.196
▁unlike	-11.1962
▁subsequent	-11.1964
▁Lauren	-11.1964
door	-11.1966
nation	-11.1968
▁friendship	-11.197
▁Mackay	-11.1972
▁sparked	-11.1977
▁genuine	-11.1977
▁connections	-11.1978
▁Clemson	-11.1978
▁Fight	-11.1983
▁Tel	-11.1984
▁contemporary	-11.1984
▁procedure	-11.1989
▁organic	-11.199
▁sole	-11.1992
▁ethic	-11.1992
▁boo	-11.1993
▁broader	-11.1994
lio	-11.1996
▁climb	-11.1997
▁appealed	-11.1999
94	-11.2
▁format	-11.2
▁excitement	-11.2004
▁muscle	-11.2004
▁affecting	-11.2006
▁Holland	-11.2009
▁concentrate	-11.201
▁dealt	-11.2015
▁Hampshire	-11.2017
▁constitute	-11.2017
▁tragic	-11.2017
Li	-11.2018
▁align	-11.2018
▁describes	-11.2019
▁starter	-11.202
best	-11.2022
▁Blake	-11.2022
▁determination	-11.2023
▁landing	-11.2028
▁Uganda	-11.203
▁Auburn	-11.203
▁achievements	-11.2034
▁visa	-11.2037
▁relax	-11.2037
▁responding	-11.2038
▁dying	-11.2039
▁roots	-11.204
▁Tamil	-11.204
▁surrounded	-11.2042
▁mirror	-11.2043
▁Peterborough	-11.2043
▁discovery	-11.2043
Di	-11.2044
gard	-11.2044
▁Zi	-11.2046
▁divorce	-11.2049
▁emotions	-11.205
MI	-11.2051
▁rebuild	-11.2051
▁haul	-11.2052
▁Harvard	-11.2056
96	-11.2062
count	-11.2063
wel	-11.2065
▁Come	-11.2067
▁surge	-11.2071
▁Bru	-11.2072
83	-11.2072
▁Connor	-11.2075
▁120	-11.2075
▁actively	-11.2076
lution	-11.2088
▁ju	-11.2088
change	-11.2094
▁repeal	-11.2095
▁seal	-11.2096
▁Gran	-11.2097
▁bureau	-11.2101
▁availability	-11.2101
▁surely	-11.2104
▁Space	-11.2104
▁violations	-11.2107
▁evident	-11.2108
▁preference	-11.211
▁Garda	-11.2113
▁Room	-11.2113
▁Orlando	-11.2114
▁Hawaii	-11.2114
cro	-11.2115
▁Helen	-11.2115
▁Winter	-11.2115
▁Amy	-11.2116
▁supportive	-11.2119
▁contributing	-11.2121
▁rip	-11.2122
▁Cox	-11.2123
▁posting	-11.2125
▁farmer	-11.2126
▁indigenous	-11.2127
ode	-11.2129
uli	-11.213
fil	-11.2135
▁campaigning	-11.2136
▁sporting	-11.2137
▁frustrated	-11.2137
▁winds	-11.2138
▁globally	-11.214
▁rack	-11.214
▁deciding	-11.214
▁recipient	-11.214
▁scratch	-11.214
▁Peace	-11.2143
▁wishes	-11.2146
▁UNLV	-11.2147
▁completing	-11.2147
▁Dream	-11.2147
▁Gh	-11.2148
▁fastest	-11.2149
▁lung	-11.2149
▁Campaign	-11.2154
▁authentic	-11.2154
▁recognised	-11.2154
▁vegetables	-11.2156
▁defended	-11.2159
▁rebels	-11.2159
▁Kingdom	-11.2161
▁dating	-11.2163
amba	-11.2165
▁passage	-11.2166
▁arguing	-11.2167
▁probation	-11.2167
▁Bailey	-11.2167
▁workplace	-11.2169
hawk	-11.217
▁Pul	-11.2172
▁Carol	-11.2174
▁Things	-11.2174
▁motivated	-11.2176
▁McCo	-11.2178
▁kickoff	-11.218
rating	-11.2182
▁Rail	-11.2185
▁legitimate	-11.2186
▁dust	-11.2195
▁Preston	-11.2196
▁ACC	-11.2199
▁Studies	-11.22
rag	-11.22
▁Which	-11.2202
▁frequent	-11.2205
▁goalie	-11.2205
▁accepting	-11.2206
DE	-11.2209
▁transformation	-11.2212
▁focuses	-11.2215
▁metres	-11.2216
▁drunk	-11.2219
82	-11.2226
▁1997	-11.2229
▁corrupt	-11.223
PO	-11.2231
▁Rugby	-11.2233
▁Indeed	-11.2233
▁Sussex	-11.2235
▁killer	-11.2236
▁admits	-11.2236
▁relating	-11.2239
asse	-11.224
▁mat	-11.2242
▁Arabia	-11.2242
▁shower	-11.2242
▁Lib	-11.2243
▁expense	-11.2244
▁82	-11.2245
▁Card	-11.2245
▁Scranton	-11.2246
▁Change	-11.2255
▁panic	-11.2259
▁gaining	-11.226
▁Sol	-11.2262
▁privacy	-11.2266
▁VA	-11.2267
▁acquire	-11.2269
chin	-11.2272
▁History	-11.2273
nch	-11.2275
8,000	-11.2278
▁Ellis	-11.2279
▁Oliver	-11.2279
▁genre	-11.2279
▁lap	-11.2282
▁fireworks	-11.2286
▁script	-11.2286
▁Native	-11.2287
IF	-11.2289
pol	-11.229
▁rallies	-11.2292
▁Az	-11.2297
▁hotels	-11.2297
▁loyal	-11.2297
▁rankings	-11.2297
▁illegally	-11.2298
▁Had	-11.2298
▁Pick	-11.2298
▁Besides	-11.2299
▁YORK	-11.2306
▁4-0	-11.2306
▁battleground	-11.2307
zu	-11.2307
▁relate	-11.2311
▁phrase	-11.2312
leg	-11.2314
▁eliminate	-11.2315
▁arrests	-11.2318
▁interviewed	-11.2319
▁humanitarian	-11.2319
▁Prize	-11.232
Jo	-11.2321
▁displayed	-11.2325
▁entertain	-11.2325
▁wages	-11.2325
child	-11.2327
▁vet	-11.2329
▁nut	-11.2332
▁expenditure	-11.2332
▁terminal	-11.2333
▁inmates	-11.2336
action	-11.2343
▁patron	-11.2346
▁fiction	-11.2346
▁Evan	-11.2351
▁formation	-11.2351
▁structures	-11.2351
▁photographer	-11.2352
handed	-11.2352
▁steer	-11.2353
▁taxpayers	-11.2353
▁scorer	-11.2355
▁partly	-11.2355
0)	-11.2356
gla	-11.2357
▁runway	-11.236
▁soldier	-11.2364
▁warming	-11.2364
▁cruise	-11.2367
▁Count	-11.2368
▁Cass	-11.2369
▁wire	-11.237
5)	-11.237
hem	-11.2371
▁Emergency	-11.2372
▁courage	-11.2372
▁doubled	-11.2373
500	-11.2374
▁safely	-11.2375
▁ignored	-11.2377
▁civilian	-11.238
▁merger	-11.2387
▁Ted	-11.239
▁buck	-11.2391
stage	-11.2391
▁Again	-11.2392
▁proportion	-11.2393
▁choosing	-11.2393
hara	-11.2395
▁bounce	-11.2398
▁clo	-11.24
▁articles	-11.2403
pack	-11.2403
▁Belfast	-11.2406
▁quake	-11.2408
▁advocates	-11.241
▁booth	-11.2411
▁experiencing	-11.2413
▁globe	-11.2413
▁eggs	-11.2417
▁comply	-11.2419
fest	-11.242
▁Lt	-11.242
▁dividend	-11.2427
▁Given	-11.2428
TION	-11.2432
▁Annual	-11.2434
▁Baylor	-11.2435
▁McM	-11.2437
▁99	-11.2439
Ex	-11.2442
▁dreams	-11.2453
▁Revenue	-11.2453
▁devastating	-11.246
▁testimony	-11.246
fish	-11.2462
▁minorities	-11.2462
▁meaningful	-11.2463
wy	-11.2466
▁Cri	-11.2468
▁Prior	-11.2471
▁principle	-11.2471
▁complained	-11.2472
▁Currently	-11.2473
▁transgender	-11.2474
▁trauma	-11.2477
world	-11.2479
▁Roman	-11.248
▁crops	-11.2481
gro	-11.2484
▁Hal	-11.2485
print	-11.2485
▁Spencer	-11.2487
▁caution	-11.249
▁Holy	-11.2493
▁Much	-11.2494
▁supervisor	-11.2494
▁oldest	-11.2495
▁assaulted	-11.2497
inder	-11.2497
hap	-11.2498
ouch	-11.2499
▁delight	-11.2507
▁perception	-11.2507
unda	-11.2511
▁Xi	-11.2515
▁Drug	-11.2516
upp	-11.2517
Oh	-11.252
eff	-11.2521
iden	-11.2524
▁tariff	-11.2528
▁rank	-11.2529
▁5,000	-11.253
rance	-11.2534
▁trillion	-11.2535
rif	-11.254
▁Luck	-11.2541
rench	-11.2542
▁Estate	-11.2542
▁launching	-11.2547
▁promoted	-11.2547
▁importantly	-11.2547
lian	-11.255
hil	-11.2551
pound	-11.2552
bach	-11.2553
▁Mann	-11.256
yi	-11.2561
▁awesome	-11.2562
▁reminder	-11.2562
▁Foster	-11.2564
▁Katie	-11.2564
▁dressing	-11.2565
mine	-11.257
▁helpful	-11.2572
▁Fra	-11.2574
▁interceptions	-11.2575
gun	-11.2575
▁Treasury	-11.2576
▁Microsoft	-11.2576
▁techniques	-11.2576
▁dedication	-11.2577
▁Finally	-11.2577
special	-11.2582
▁("	-11.2584
▁decrease	-11.2586
▁councillors	-11.2593
rik	-11.2594
▁Marcus	-11.26
▁Berg	-11.2602
▁sweep	-11.261
▁stranger	-11.2612
▁divide	-11.2613
force	-11.2615
▁Palm	-11.2616
▁DA	-11.2618
▁shore	-11.2618
▁Costa	-11.2619
▁Kir	-11.2619
▁vary	-11.2621
$1	-11.2624
▁existence	-11.2625
aro	-11.2626
mouth	-11.2627
▁reign	-11.2628
▁accounting	-11.2629
▁rig	-11.263
▁thousand	-11.2632
▁gifts	-11.2633
▁Ade	-11.2634
via	-11.2636
▁consensus	-11.2637
uda	-11.2641
▁jailed	-11.2642
▁Bou	-11.2645
▁UND	-11.2646
▁Residents	-11.2646
▁mineral	-11.2646
▁approaches	-11.2649
ibility	-11.2651
▁Snow	-11.2654
▁Saint	-11.2655
pu	-11.2656
Everybody	-11.2657
▁Construction	-11.2658
▁harsh	-11.2658
▁Cloud	-11.2662
▁nose	-11.2663
▁Progressive	-11.2666
▁fur	-11.2666
▁strict	-11.267
▁exhaust	-11.2672
▁Put	-11.2675
wind	-11.2676
▁Minneapolis	-11.2679
▁Electric	-11.2679
dell	-11.268
EE	-11.2681
▁Imp	-11.2682
▁condemn	-11.2682
▁Kate	-11.2682
▁resolved	-11.2683
▁undermine	-11.2683
ography	-11.2684
▁memo	-11.2685
▁traded	-11.2687
His	-11.2689
▁renovation	-11.2693
▁blocking	-11.2693
▁questioning	-11.27
▁4-1	-11.2701
▁fleet	-11.2703
93	-11.2703
▁unity	-11.2704
▁Manatee	-11.2706
▁Welsh	-11.2707
▁blaze	-11.2707
▁jam	-11.2708
▁deserves	-11.2711
▁Harbor	-11.2711
▁Pin	-11.2713
CU	-11.2715
▁briefly	-11.2718
▁musician	-11.272
▁Animal	-11.272
▁Thunder	-11.2721
▁insists	-11.2725
▁peers	-11.2725
▁sink	-11.2727
▁YouTube	-11.2727
▁disappointment	-11.2728
▁Travel	-11.2728
LD	-11.2731
▁Devils	-11.2734
▁stamp	-11.2735
▁defenders	-11.2738
good	-11.2739
▁Inspector	-11.2741
▁Samsung	-11.2741
▁submission	-11.2742
▁discussing	-11.2744
▁educate	-11.2745
organ	-11.2745
nate	-11.2745
▁sweat	-11.2755
▁digs	-11.2758
▁stating	-11.2758
▁organ	-11.2759
▁lesson	-11.2762
fan	-11.2765
▁Manhattan	-11.2769
▁mad	-11.2769
▁tribal	-11.2769
▁Stoke	-11.2774
▁valued	-11.2777
▁stat	-11.2777
▁Bio	-11.2778
▁commented	-11.2779
▁DNA	-11.278
ood	-11.278
▁spectacular	-11.2783
▁Heights	-11.2784
▁bite	-11.2789
▁Connecticut	-11.279
▁Superintendent	-11.279
▁listing	-11.279
▁McK	-11.2791
BER	-11.2793
▁contractor	-11.2795
▁NO	-11.2797
▁tragedy	-11.2797
▁designated	-11.2798
▁Cuba	-11.2798
▁Member	-11.2799
▁1995	-11.2802
▁accusations	-11.2802
▁physician	-11.2804
▁Bee	-11.2808
▁Tin	-11.281
▁Jessica	-11.2811
▁newsletter	-11.2811
▁formally	-11.2814
▁sacks	-11.2816
▁trains	-11.2816
▁civic	-11.2818
mitted	-11.2822
▁advisory	-11.2824
▁endorsement	-11.2824
▁Davies	-11.2826
▁assisted	-11.2827
▁entrepreneurs	-11.2827
ao	-11.2829
▁fold	-11.2831
▁pig	-11.2832
▁painful	-11.2832
▁tire	-11.2833
hart	-11.2835
risk	-11.2836
▁lanes	-11.2837
▁prescription	-11.2839
▁fabric	-11.2846
▁mechanism	-11.2846
▁header	-11.2847
▁wounds	-11.2849
ingham	-11.2851
▁Primary	-11.2853
lb	-11.2854
-3)	-11.286
▁semifinals	-11.2861
2)	-11.2861
dam	-11.2863
▁deter	-11.2867
▁destruction	-11.2867
▁Stuart	-11.2867
▁qualification	-11.2867
phy	-11.2867
▁Rachel	-11.2868
▁preseason	-11.287
▁respected	-11.2871
▁Karen	-11.2874
▁Barb	-11.2875
▁Mission	-11.2877
▁DC	-11.2881
▁Baptist	-11.2881
▁acted	-11.2886
TO	-11.2886
▁Venezuela	-11.2888
Hopefully	-11.2888
▁Boys	-11.289
▁maker	-11.2892
▁Being	-11.2892
etti	-11.2893
▁deputies	-11.2895
▁grip	-11.2896
▁coin	-11.2896
gil	-11.29
▁Brew	-11.2902
▁distress	-11.2903
▁patch	-11.2904
▁Deb	-11.2906
rod	-11.2907
▁Brooks	-11.2907
email	-11.2908
▁Thank	-11.2909
▁studied	-11.291
▁Set	-11.2916
undi	-11.2916
▁averaged	-11.2916
▁Click	-11.2916
▁assurance	-11.2917
▁scare	-11.2918
gas	-11.2921
uit	-11.2923
▁adoption	-11.2924
▁Bun	-11.2931
iga	-11.2934
▁weakness	-11.2934
▁neighborhoods	-11.2935
▁excess	-11.2943
▁geo	-11.2947
ENT	-11.2952
▁Jerusalem	-11.2952
▁subscribe	-11.2954
meter	-11.2955
▁Opera	-11.2956
7,000	-11.2958
▁appointments	-11.2959
▁Broncos	-11.2959
OM	-11.296
▁plum	-11.2962
ema	-11.2962
▁cleaning	-11.2962
▁Measure	-11.2966
WA	-11.2966
wheel	-11.2967
▁translate	-11.2967
▁evil	-11.2968
▁consulting	-11.297
roy	-11.2973
▁Fal	-11.2976
▁beliefs	-11.2977
Sha	-11.2979
▁83	-11.2979
▁Jesus	-11.2981
▁km	-11.2988
▁NC	-11.2989
▁86	-11.299
▁intend	-11.299
▁traders	-11.2991
▁trafficking	-11.2992
▁generous	-11.2995
▁legally	-11.2995
▁1992	-11.2998
▁WikiLeaks	-11.3002
▁pursuing	-11.3002
▁differently	-11.3002
iah	-11.3004
▁Emma	-11.3005
▁shocking	-11.3007
▁endorsed	-11.3008
goal	-11.3009
▁Nicola	-11.3009
▁Summer	-11.301
▁leap	-11.3011
▁editorial	-11.3011
▁manufacture	-11.3015
▁semifinal	-11.3016
▁Boulevard	-11.3016
▁Prop	-11.3017
▁punishment	-11.3022
▁ambitious	-11.3023
▁bun	-11.3024
▁merely	-11.3024
▁Against	-11.3027
▁travelled	-11.3027
▁checked	-11.3027
▁ancient	-11.3031
▁Bha	-11.3035
▁photographs	-11.3036
▁Clo	-11.3036
▁barriers	-11.3037
▁slight	-11.3039
▁1998	-11.3041
▁resigned	-11.3041
▁weird	-11.3041
too	-11.3042
lac	-11.3045
▁trapped	-11.3045
▁heroin	-11.3054
▁Chester	-11.3055
▁trap	-11.3055
▁remembered	-11.3059
▁Shan	-11.3062
▁poet	-11.3064
▁Ferr	-11.3065
▁Bangladesh	-11.3066
▁golden	-11.307
▁turkey	-11.3074
▁nurses	-11.3077
▁Ran	-11.3079
▁aftermath	-11.3081
▁dig	-11.3083
▁suburb	-11.3085
uf	-11.3085
rup	-11.3085
▁88	-11.3086
▁thrilled	-11.3087
▁backup	-11.309
▁ruin	-11.3099
▁pointing	-11.3101
▁bulk	-11.3103
▁Chu	-11.3104
▁missile	-11.3104
▁USC	-11.3105
▁Ghanaian	-11.3106
▁Private	-11.311
▁Rodgers	-11.311
▁3,000	-11.3114
▁precinct	-11.3117
▁Trophy	-11.3117
▁modest	-11.3124
▁Delta	-11.3124
▁tuition	-11.3124
▁pink	-11.3133
▁Doctor	-11.3134
▁grain	-11.3141
▁conclude	-11.3145
▁delegation	-11.3146
▁pursuit	-11.3146
▁renewed	-11.3148
▁Sarawak	-11.3153
▁painted	-11.3154
▁resignation	-11.3156
▁Mau	-11.3158
▁Olympics	-11.3159
▁Gibson	-11.316
▁impose	-11.3167
▁evaluate	-11.3168
▁supermarket	-11.3168
▁87	-11.317
▁Rad	-11.317
oid	-11.3176
▁advisor	-11.3176
▁Charter	-11.3179
▁collecting	-11.3181
▁Abdul	-11.3182
▁Alaska	-11.3183
▁fed	-11.3183
▁Comm	-11.3184
▁Criminal	-11.3189
▁accelerate	-11.3189
▁virtually	-11.3196
▁trophy	-11.3197
▁placing	-11.3197
▁endanger	-11.3197
▁Ny	-11.32
▁Claire	-11.3207
▁Potter	-11.3208
▁Additionally	-11.3208
Dade	-11.3209
▁($	-11.3209
▁Rice	-11.3214
last	-11.3217
▁Investigation	-11.3218
▁scrutiny	-11.3218
DAY	-11.3219
▁Berlin	-11.322
▁Merced	-11.322
miss	-11.3222
▁Cav	-11.3223
▁Ashley	-11.3224
umble	-11.3226
▁Audi	-11.3228
nov	-11.3231
▁Baltimore	-11.3233
▁Leicester	-11.3233
▁Elliott	-11.3233
ela	-11.3236
▁Gun	-11.3237
-23	-11.324
▁x	-11.3241
▁Brock	-11.3242
▁suggestions	-11.3244
▁legislators	-11.3245
▁accomplished	-11.3245
▁Sunshine	-11.3248
wise	-11.3248
▁Derby	-11.3248
1)	-11.325
ule	-11.325
▁egg	-11.3261
▁requiring	-11.3262
▁Moon	-11.3263
▁survivors	-11.3264
▁Sunderland	-11.3277
▁congratulate	-11.3277
▁fortune	-11.3278
▁Pot	-11.3278
seat	-11.3278
▁parked	-11.3281
▁supplement	-11.3284
gli	-11.3289
▁Iron	-11.3291
▁Index	-11.3292
▁melt	-11.3293
bird	-11.3293
▁GM	-11.3295
▁Chen	-11.3295
VA	-11.3298
▁forgotten	-11.3299
▁Deep	-11.33
break	-11.3301
▁consult	-11.3304
▁Luc	-11.3307
▁$12	-11.331
Don	-11.331
▁emerge	-11.3313
▁Austria	-11.3314
FO	-11.3314
-25	-11.3314
enberg	-11.3316
phone	-11.3316
Man	-11.3316
▁define	-11.332
▁definition	-11.3321
itis	-11.3322
▁channels	-11.3324
▁mall	-11.3325
▁Colin	-11.3326
▁Vale	-11.3328
▁Upcoming	-11.3329
bid	-11.3329
jar	-11.3329
▁mock	-11.3329
▁drain	-11.333
▁cigarette	-11.3331
▁disability	-11.3333
▁cocktail	-11.3336
rous	-11.3336
▁Tags	-11.3339
uth	-11.3339
▁SW	-11.3342
▁Detective	-11.3343
▁Oh	-11.3345
▁reflects	-11.3348
▁compare	-11.335
▁fierce	-11.3351
▁samples	-11.3353
▁productive	-11.3354
▁pause	-11.3354
▁Oakland	-11.3355
▁landmark	-11.3355
witch	-11.3358
▁assert	-11.3359
▁Record	-11.3361
kel	-11.3365
▁enthusiasm	-11.3366
LL	-11.3368
▁Norman	-11.337
▁Sara	-11.3371
▁scam	-11.3374
illo	-11.3375
ILL	-11.3377
▁Roll	-11.3378
▁snake	-11.3381
AG	-11.3385
▁GDP	-11.3386
▁difficulty	-11.3387
▁speculation	-11.3388
▁rigged	-11.3388
▁Kerry	-11.339
▁Pinterest	-11.339
▁Dance	-11.3391
hur	-11.3391
▁Cruz	-11.3393
▁1/2	-11.3395
▁Airwheel	-11.3396
▁loving	-11.3397
▁Sto	-11.3398
▁Senators	-11.3399
▁FM	-11.3401
▁teenage	-11.3401
mur	-11.3401
▁rallied	-11.3403
▁unveiled	-11.3405
▁Lucas	-11.3406
▁sack	-11.3407
▁addiction	-11.3407
▁Ferguson	-11.341
▁Duluth	-11.341
▁virtual	-11.3411
▁journalism	-11.3411
▁waited	-11.3412
▁Chancellor	-11.3413
▁Tampa	-11.3414
▁deserved	-11.3422
▁Brady	-11.3423
▁arriving	-11.3425
▁servant	-11.3425
▁motorcycle	-11.3425
▁suppliers	-11.3426
rash	-11.3426
▁Online	-11.3428
▁alien	-11.343
▁offenders	-11.3431
after	-11.3432
▁recommendation	-11.3433
▁$50	-11.3436
▁Grace	-11.3437
case	-11.3438
▁coup	-11.3438
▁replacing	-11.344
bbing	-11.344
▁Wildlife	-11.344
▁riot	-11.3441
▁thanked	-11.3442
▁approaching	-11.3445
pal	-11.3445
▁Lima	-11.345
▁lovely	-11.345
path	-11.3451
▁king	-11.3453
▁venues	-11.3453
▁Future	-11.3455
▁flowers	-11.3456
▁Barn	-11.3456
▁HIV	-11.3458
▁Prosecutors	-11.3459
▁coat	-11.3461
taking	-11.3461
▁Age	-11.3462
▁satisfied	-11.3462
▁executed	-11.3466
▁Kwa	-11.3468
▁riders	-11.3468
▁Dubai	-11.347
▁corridor	-11.347
▁regulate	-11.347
▁Gabriel	-11.347
▁(9	-11.347
▁prizes	-11.3471
▁inclusion	-11.3476
Bu	-11.3478
▁quote	-11.3478
▁conducting	-11.3479
▁extremist	-11.3485
▁Industrial	-11.3485
▁Tourism	-11.3488
▁celebrations	-11.3488
▁84	-11.349
▁desert	-11.3492
▁collapsed	-11.3493
inter	-11.3495
▁Ala	-11.3497
▁79	-11.3497
▁broker	-11.35
chen	-11.35
▁Gallery	-11.35
▁disclosure	-11.3507
▁tunnel	-11.3507
▁assigned	-11.3507
▁slide	-11.3508
▁Hawks	-11.3509
-24	-11.3512
▁charging	-11.3515
▁Ranch	-11.3515
▁whenever	-11.3516
▁neighbours	-11.3516
▁Sil	-11.3518
▁winger	-11.3518
kka	-11.352
▁fossil	-11.3522
▁bargain	-11.3523
▁PO	-11.3525
▁DO	-11.3525
▁Overall	-11.3527
president	-11.3528
appa	-11.3529
▁horses	-11.3531
▁hitter	-11.3535
▁unfold	-11.3537
▁commun	-11.3538
▁Johnston	-11.3539
▁Para	-11.354
▁artistic	-11.3542
▁Dia	-11.3545
▁Afghan	-11.3545
▁Ipswich	-11.3552
▁topped	-11.356
▁vaccine	-11.356
▁drum	-11.356
▁contend	-11.3562
▁neuro	-11.3565
▁commissioners	-11.3567
responsibilities	-11.3567
▁Tournament	-11.3567
▁BJP	-11.3567
▁Cy	-11.357
▁81	-11.3573
▁ratings	-11.3574
▁unfortunate	-11.3576
raj	-11.3577
osh	-11.3577
▁Kane	-11.3582
▁celebrity	-11.3583
▁Plus	-11.3584
▁flip	-11.3585
▁Carlos	-11.3586
▁suitable	-11.3586
▁download	-11.3589
▁contender	-11.359
▁Question	-11.359
acious	-11.3592
▁advise	-11.3592
▁interpretation	-11.3596
▁Twin	-11.3596
▁ordinance	-11.3598
▁balanced	-11.3598
▁Political	-11.3598
Star	-11.3598
▁adjustment	-11.3599
▁Soon	-11.3599
▁bang	-11.3602
▁Insurance	-11.3605
▁invitation	-11.3605
▁Reed	-11.3606
▁Freedom	-11.3606
▁VI	-11.3606
▁List	-11.3608
ago	-11.3609
▁Roger	-11.3611
▁appreciation	-11.3613
SF	-11.3613
▁levy	-11.3613
hou	-11.3616
General	-11.3619
▁orchestra	-11.3621
▁Sure	-11.3625
▁conceded	-11.3629
▁Bobby	-11.3633
▁Gall	-11.3638
▁greatly	-11.3641
▁Brun	-11.3643
▁swept	-11.3643
▁bold	-11.3646
▁Guy	-11.3647
▁94	-11.3647
▁lender	-11.3647
▁guaranteed	-11.3648
dpa	-11.3648
▁Joel	-11.3648
IE	-11.365
▁frustrating	-11.3651
▁prisoners	-11.3651
▁superior	-11.3651
▁treating	-11.3651
▁genetic	-11.3651
word	-11.3652
▁toxic	-11.3653
▁Pep	-11.3654
ibly	-11.3655
MAN	-11.3657
▁battling	-11.3659
cycl	-11.3662
▁neutral	-11.3663
▁spare	-11.3663
▁Lyn	-11.3663
▁Holdings	-11.3666
▁wrapped	-11.3667
▁chaos	-11.3668
azi	-11.3671
▁Reach	-11.3672
▁complement	-11.3674
stock	-11.3674
pac	-11.3674
▁absentee	-11.3675
▁subsequently	-11.3675
▁Marketing	-11.3676
▁Obamacare	-11.3677
▁Pradesh	-11.3681
▁graduation	-11.3681
GE	-11.3682
cum	-11.3683
▁BA	-11.3689
▁Falcons	-11.3689
▁(10	-11.3694
▁plain	-11.3695
▁temple	-11.3695
▁array	-11.3697
▁Turn	-11.3697
▁Flo	-11.3697
▁Garcia	-11.3698
▁Factor	-11.3699
▁disabilities	-11.3704
▁Order	-11.3706
▁render	-11.3706
▁Common	-11.3707
▁materially	-11.3712
▁escaped	-11.3713
ugu	-11.3713
big	-11.3714
▁spotlight	-11.3715
2,000	-11.3726
▁junction	-11.3727
▁epi	-11.3732
▁ratio	-11.3732
▁stole	-11.3732
fact	-11.3734
▁Joint	-11.3735
▁Margaret	-11.3735
▁employer	-11.3736
▁Pete	-11.3742
▁SH	-11.3747
▁enact	-11.3749
▁underground	-11.3749
▁economies	-11.375
▁institute	-11.3751
▁CC	-11.3753
▁marathon	-11.3758
▁Louisiana	-11.3758
▁Flames	-11.3759
▁pickup	-11.376
story	-11.3763
▁pole	-11.3763
▁Bow	-11.3763
▁reservation	-11.3766
abo	-11.377
founder	-11.377
▁innocent	-11.3774
Let	-11.3774
▁provisions	-11.3779
▁advocacy	-11.3781
▁philosophy	-11.3781
▁babies	-11.3781
▁Kee	-11.3783
▁Dear	-11.3783
▁cheaper	-11.3784
▁regain	-11.3784
▁hometown	-11.3784
▁recruitment	-11.3786
ennial	-11.3789
order	-11.3792
▁Beth	-11.3793
▁undergo	-11.3795
▁Vincent	-11.3797
▁Arch	-11.3798
▁merit	-11.38
▁Lexington	-11.3804
▁demographic	-11.3804
▁Dolphins	-11.3812
▁implications	-11.3812
hoe	-11.3813
▁Cru	-11.3815
▁97	-11.3816
▁profession	-11.3818
▁Coalition	-11.382
▁considerable	-11.3823
▁Rama	-11.3827
▁Cardinal	-11.3827
host	-11.3827
▁furniture	-11.3828
▁landlord	-11.3835
▁flew	-11.3835
▁Palmer	-11.3837
▁bonus	-11.3837
▁marine	-11.3843
▁integration	-11.3843
abi	-11.3846
▁Sullivan	-11.3847
ool	-11.3849
▁Rooney	-11.3851
▁pricing	-11.3851
▁Liam	-11.3855
▁reserves	-11.3857
▁sleeping	-11.3858
▁Jar	-11.3858
▁math	-11.3859
▁explaining	-11.386
▁Strange	-11.3861
▁ESPN	-11.3861
wu	-11.3866
▁whilst	-11.3867
▁affair	-11.3867
▁benchmark	-11.3868
empt	-11.3868
▁indoor	-11.3872
▁containing	-11.3872
▁cocaine	-11.3874
▁charm	-11.3878
▁brick	-11.3878
▁Nasdaq	-11.3882
▁satellite	-11.3882
NO	-11.3882
group	-11.3885
▁pitcher	-11.389
▁Commons	-11.3894
ider	-11.3895
trust	-11.3897
logy	-11.3899
▁traveled	-11.3901
kov	-11.3906
▁colleague	-11.3907
▁111	-11.3907
▁Around	-11.3912
▁Rebels	-11.3914
▁pleasure	-11.3914
▁competitors	-11.3914
▁wise	-11.392
▁components	-11.3925
▁terrorists	-11.3928
▁Vladimir	-11.3929
From	-11.3929
▁Jenkins	-11.3929
▁elementary	-11.3931
▁realised	-11.3932
▁Robin	-11.3933
▁triggered	-11.3936
HC	-11.3936
▁millennial	-11.3937
▁Greek	-11.3938
LY	-11.3939
▁Hil	-11.3939
▁Zo	-11.3941
▁banner	-11.3944
▁averaging	-11.3945
▁scope	-11.3946
▁bombing	-11.3951
▁tactics	-11.3954
▁electrical	-11.3959
▁lined	-11.3963
▁trailer	-11.3964
▁superb	-11.3967
▁councillor	-11.397
▁Casey	-11.3972
▁beloved	-11.3976
mid	-11.3976
Related	-11.3976
▁Should	-11.3977
▁poison	-11.3977
▁booking	-11.3978
▁attendees	-11.3978
▁detention	-11.3978
▁intends	-11.3979
▁Medicine	-11.3984
▁coordinate	-11.3985
▁Michel	-11.3989
▁inclusive	-11.399
▁tourist	-11.399
▁GH	-11.3991
▁Argentina	-11.3992
▁CR	-11.3994
▁bow	-11.3997
▁constructed	-11.3998
▁Steel	-11.3998
▁infant	-11.3999
▁deceased	-11.4
commerce	-11.4
▁Madrid	-11.4001
▁sentencing	-11.4009
two	-11.4011
step	-11.4011
▁disruption	-11.4013
generation	-11.4017
▁Sales	-11.4017
▁random	-11.4017
itan	-11.4019
fund	-11.4021
aire	-11.4022
▁gentle	-11.4025
omi	-11.4028
▁Code	-11.4029
▁Birmingham	-11.4031
▁ceiling	-11.4031
backed	-11.404
▁followers	-11.4047
▁Mohammed	-11.4047
▁McA	-11.4048
▁Pool	-11.4049
▁Lead	-11.405
▁grace	-11.405
▁Juan	-11.4052
▁acceptable	-11.4054
▁slipped	-11.4056
▁exists	-11.4057
check	-11.4058
kg	-11.4058
▁Initiative	-11.4063
▁patent	-11.4063
▁Credit	-11.4063
▁Hull	-11.4068
▁buzz	-11.4071
government	-11.4072
▁permits	-11.4078
▁depends	-11.4078
court	-11.4082
▁diplomatic	-11.4083
▁clicking	-11.4084
cott	-11.4085
▁architect	-11.4086
▁survival	-11.4087
▁universal	-11.4087
▁cousin	-11.4087
▁torture	-11.4088
▁pur	-11.4091
▁slump	-11.4096
▁anchor	-11.4096
▁Broadway	-11.4097
▁Related	-11.4103
▁Circuit	-11.4103
▁spiritual	-11.4105
▁Matter	-11.4105
▁preventing	-11.4106
▁Headline	-11.4109
▁duck	-11.4109
arrow	-11.411
▁ram	-11.4111
▁surrender	-11.4111
▁Barbara	-11.4111
fight	-11.4112
SB	-11.4121
▁Southeast	-11.4122
▁compassion	-11.4127
▁hammer	-11.4127
▁Marcos	-11.4129
▁memorable	-11.4135
▁teammate	-11.414
corp	-11.4142
▁Richmond	-11.4143
▁$30	-11.4148
▁Cambridge	-11.4151
▁Oscar	-11.4152
▁poetry	-11.4153
Why	-11.4156
bab	-11.4159
▁grocery	-11.4159
▁grandmother	-11.4159
▁Ghanaians	-11.4159
RM	-11.416
▁ver	-11.4163
there	-11.4165
▁Wichita	-11.4167
▁button	-11.4167
vig	-11.4172
▁queue	-11.4175
▁boil	-11.4179
agon	-11.418
▁transported	-11.4181
▁MLA	-11.4181
▁nowhere	-11.4182
▁tent	-11.4183
▁nail	-11.4183
▁nerve	-11.4184
▁posed	-11.419
▁steep	-11.4191
▁Net	-11.4192
▁Richardson	-11.4195
▁Marie	-11.4197
▁rhythm	-11.4199
rigg	-11.4199
▁Based	-11.4199
▁Money	-11.4201
▁wealthy	-11.4202
▁embark	-11.4207
▁beverage	-11.4207
AFX	-11.4208
▁finale	-11.4211
▁Og	-11.4211
▁BO	-11.4213
▁thrill	-11.4217
▁mentally	-11.4218
▁Name	-11.422
▁tracking	-11.422
EY	-11.4221
▁relocate	-11.4223
▁Arthur	-11.4224
▁trash	-11.4226
▁ABC	-11.4226
▁Clarke	-11.4229
▁manifest	-11.4231
▁automatically	-11.4232
nick	-11.4236
▁Mother	-11.4237
▁opera	-11.4237
Any	-11.424
▁Cul	-11.4244
▁defendants	-11.4246
▁surf	-11.4247
▁salaries	-11.4248
▁safer	-11.4248
▁Nan	-11.4251
▁Belgium	-11.4255
▁recession	-11.4255
▁welcoming	-11.4255
acle	-11.4257
▁Looking	-11.4258
▁influential	-11.4264
▁revelation	-11.4264
▁Theater	-11.4267
-0)	-11.4271
stad	-11.4272
▁certified	-11.4272
▁alumni	-11.4272
▁reader	-11.4273
▁NBC	-11.4273
▁contractors	-11.4278
tail	-11.4279
▁prestigious	-11.428
▁dismiss	-11.4283
▁stepping	-11.4286
▁divisive	-11.4288
profile	-11.429
▁quarterfinal	-11.4291
New	-11.4292
▁Dur	-11.4292
▁quo	-11.4296
▁Mut	-11.4298
▁staged	-11.4302
▁Fle	-11.4303
▁criteria	-11.4304
▁stabbed	-11.4304
▁Letter	-11.4308
▁Hat	-11.4311
▁wreck	-11.4313
vir	-11.4315
▁Dale	-11.4316
▁Fac	-11.4317
▁pioneer	-11.432
▁undocumented	-11.432
▁shoppers	-11.4322
▁£8	-11.4324
▁shy	-11.4327
▁Remembrance	-11.4329
▁obstacle	-11.4329
▁Pierce	-11.4329
suit	-11.433
four	-11.4331
▁SUV	-11.4341
▁appearing	-11.4341
▁Pakistani	-11.4343
▁unacceptable	-11.4344
Getty	-11.4345
▁humble	-11.4346
▁Rd	-11.4346
▁Sid	-11.4352
▁Digital	-11.4353
▁Bradford	-11.4355
▁Unlike	-11.4355
November	-11.4356
facebook	-11.4356
▁Store	-11.4357
zon	-11.4358
▁Page	-11.436
▁prediction	-11.436
▁cope	-11.4366
zan	-11.4366
▁Cut	-11.4368
▁jacket	-11.437
▁jazz	-11.437
▁burned	-11.4372
vation	-11.4372
▁rum	-11.4375
▁tension	-11.4377
▁automatic	-11.4377
▁Professional	-11.4378
achi	-11.438
▁rocket	-11.438
position	-11.4381
▁Horn	-11.4383
▁manufacturer	-11.4385
▁Does	-11.4385
▁declare	-11.4387
ij	-11.4387
▁Johnny	-11.4393
▁grandchildren	-11.4394
▁Tufts	-11.4394
▁neighbourhood	-11.4394
▁Haiti	-11.4395
▁starters	-11.4395
▁flooding	-11.4396
▁accountable	-11.44
GR	-11.4401
▁thankful	-11.4401
▁notified	-11.4402
▁Military	-11.4402
▁Superior	-11.4402
▁Border	-11.4409
▁700	-11.4411
▁owe	-11.4411
▁Duncan	-11.4411
▁6:30	-11.4413
▁capped	-11.4414
stat	-11.4419
metric	-11.4419
▁boyfriend	-11.442
cco	-11.442
▁bri	-11.4424
▁grad	-11.4426
▁neglect	-11.4435
▁intensity	-11.4435
▁traditionally	-11.4435
▁publisher	-11.4437
▁checking	-11.444
▁instructor	-11.444
▁Ahmed	-11.4443
▁Comments	-11.4445
▁Lynch	-11.4447
▁extending	-11.4449
▁suite	-11.4451
▁performers	-11.4451
▁Tree	-11.4453
▁interpret	-11.4453
TU	-11.4456
▁accomplishment	-11.4457
▁describing	-11.446
▁temporarily	-11.446
▁Trevor	-11.446
▁inspector	-11.4461
▁lengthy	-11.4462
▁Manila	-11.4463
▁Greene	-11.4465
▁Person	-11.4467
▁2.5	-11.4468
▁advancing	-11.4468
▁assignment	-11.4468
▁100,000	-11.4472
using	-11.4475
trade	-11.4475
▁Kill	-11.4476
▁rifle	-11.4477
▁enrollment	-11.4478
▁skilled	-11.4479
iri	-11.4482
seeded	-11.4484
▁Restaurant	-11.4485
▁Ukraine	-11.4485
▁fitting	-11.4486
white	-11.4488
▁yen	-11.4489
anta	-11.4493
▁slogan	-11.4493
“	-11.4493
working	-11.4493
▁productivity	-11.4494
▁Tul	-11.45
▁climbed	-11.45
▁Len	-11.4501
▁Studio	-11.4501
▁89	-11.4502
▁5-1	-11.4504
Over	-11.4506
▁Shah	-11.4507
▁openly	-11.4509
▁Consumer	-11.451
▁laptop	-11.451
▁construct	-11.4515
▁Pitt	-11.4515
UM	-11.4517
▁identification	-11.4518
▁bass	-11.4518
▁Mick	-11.4521
RY	-11.4521
▁tick	-11.4521
▁000	-11.4529
▁shutout	-11.4533
▁Namibia	-11.4535
▁militia	-11.4535
▁Marsh	-11.4536
▁Gan	-11.4536
kind	-11.4539
▁Sarasota	-11.4543
▁98	-11.4551
▁Netflix	-11.4551
▁thrive	-11.4551
▁athlete	-11.4552
▁restored	-11.4552
▁brush	-11.4552
▁burger	-11.4553
▁Capitol	-11.456
▁spectrum	-11.456
▁delicious	-11.456
▁Conway	-11.4561
▁slid	-11.4567
▁circuit	-11.4568
watch	-11.457
guard	-11.4571
▁component	-11.4572
▁audio	-11.4576
▁Aberdeen	-11.4576
▁Nichols	-11.4576
▁bilateral	-11.4576
▁stealing	-11.4581
park	-11.4583
▁Ambassador	-11.4585
udi	-11.4585
Sh	-11.4586
▁0.2	-11.4586
▁engineers	-11.4587
▁recovering	-11.4587
▁humanity	-11.4589
▁freeze	-11.4592
▁rode	-11.4592
▁strongest	-11.4593
▁Morrison	-11.4595
▁Patriots	-11.4601
▁TSX	-11.4602
▁Webb	-11.4603
▁Railway	-11.4603
▁fined	-11.4603
▁campuses	-11.4603
▁steam	-11.4604
▁Oilers	-11.4605
chester	-11.4605
may	-11.4606
▁realistic	-11.4608
▁Walsh	-11.4608
▁Climate	-11.461
▁Tacoma	-11.461
aq	-11.4611
▁deport	-11.4612
▁Chad	-11.4612
▁intelligent	-11.4618
▁Opposition	-11.4618
▁Jefferson	-11.4619
▁Apart	-11.4621
▁Prep	-11.4622
ggle	-11.4624
▁unfortunately	-11.4625
▁Sanchez	-11.4627
▁lyrics	-11.4627
eur	-11.4627
▁Month	-11.4628
▁Engineering	-11.463
Pacific	-11.4631
▁announcing	-11.4635
▁intellectual	-11.4635
▁Think	-11.4636
▁tensions	-11.4636
CR	-11.4637
course	-11.4638
▁deployment	-11.4641
▁Edit	-11.4641
▁damaging	-11.4644
▁evaluation	-11.4644
▁shine	-11.4645
▁Nine	-11.4648
bell	-11.4649
However	-11.4649
▁lur	-11.4651
▁mandatory	-11.4652
second	-11.4658
▁opted	-11.466
EO	-11.466
▁securing	-11.466
▁Eddie	-11.4661
Vi	-11.4668
▁haunted	-11.4668
▁Poli	-11.4669
▁milestone	-11.4669
▁pastor	-11.467
▁Never	-11.467
▁notion	-11.4672
utt	-11.4673
By	-11.4674
▁southwest	-11.4679
viv	-11.468
chu	-11.4684
▁Hudson	-11.4686
▁£6	-11.469
▁Mak	-11.4697
▁tenants	-11.4698
▁institutional	-11.4704
▁seasonal	-11.4704
▁mature	-11.4708
▁naturally	-11.4708
▁connecting	-11.4709
▁convey	-11.4711
▁propose	-11.4714
▁Holiday	-11.4719
▁subsidiary	-11.4719
▁PAC	-11.4721
▁prompt	-11.4722
rill	-11.4727
▁beneficial	-11.4728
▁Hung	-11.4728
▁convenience	-11.4736
▁Thailand	-11.4738
▁fighter	-11.4738
▁wickets	-11.4739
▁absolute	-11.4739
-22	-11.4741
hav	-11.4742
▁accomplish	-11.4742
other	-11.4744
▁psychological	-11.4745
▁graphic	-11.4746
▁Southwest	-11.4751
▁Records	-11.4752
▁Filipino	-11.4753
▁excellence	-11.4753
▁Storm	-11.4754
cz	-11.4754
▁poster	-11.4757
▁Mai	-11.4757
▁Born	-11.4763
▁bath	-11.4766
▁acceptance	-11.4767
▁Belt	-11.4767
▁retreat	-11.4769
▁swim	-11.4769
▁vacant	-11.477
▁boundaries	-11.4771
▁Linda	-11.4771
▁outrage	-11.4772
▁pond	-11.4772
▁academy	-11.4779
▁Brooklyn	-11.4779
▁Joshua	-11.4779
,600	-11.4782
VI	-11.4782
▁prevented	-11.4784
▁jurors	-11.4786
▁satisfy	-11.4787
▁Leafs	-11.4787
▁endorse	-11.4794
nett	-11.4795
ask	-11.4795
▁Podesta	-11.4796
▁nutrition	-11.4796
▁dash	-11.4797
▁Legion	-11.4798
▁Marco	-11.4799
▁mud	-11.48
▁Leon	-11.4803
▁None	-11.4804
▁flexible	-11.4804
▁charities	-11.4804
▁asylum	-11.4805
▁Until	-11.4806
▁Regulation	-11.4806
▁accuse	-11.4807
1,000	-11.4809
wich	-11.481
▁Congressional	-11.4813
▁applying	-11.482
▁perceived	-11.482
▁Updated	-11.482
▁dual	-11.4821
Today	-11.4824
▁Benjamin	-11.483
▁Cowboys	-11.483
▁Observer	-11.483
▁ugly	-11.4831
uba	-11.4834
▁Pie	-11.4834
▁Lab	-11.4836
▁Olympia	-11.4839
▁Toyota	-11.4839
▁shipping	-11.4842
▁accountability	-11.4842
uan	-11.4847
▁reply	-11.4847
▁Memphis	-11.4847
▁Knights	-11.4854
▁exploring	-11.4856
▁removing	-11.4856
▁unlawful	-11.4856
Yes	-11.4862
date	-11.4863
lop	-11.4868
▁Made	-11.4872
▁swift	-11.4873
▁Bloomberg	-11.4873
▁database	-11.4874
Mr	-11.4874
▁licensed	-11.4874
▁Riley	-11.4876
▁Bird	-11.4877
▁Property	-11.4882
▁convince	-11.4884
▁Cuban	-11.4887
▁Hannah	-11.489
▁enemy	-11.489
▁Hornets	-11.4891
▁citizenship	-11.4892
▁publish	-11.4893
▁Blair	-11.4894
▁Honor	-11.4896
3)	-11.4898
▁FIFA	-11.4899
▁Julian	-11.4902
▁Season	-11.4903
▁Wine	-11.4905
oka	-11.4905
INE	-11.4909
▁outreach	-11.4913
▁specialize	-11.4913
oul	-11.492
▁Rural	-11.4921
corn	-11.4922
▁literature	-11.4925
▁apology	-11.4925
▁sin	-11.4926
fla	-11.4933
▁makers	-11.4934
▁Total	-11.4935
GH	-11.4938
3,000	-11.4939
▁Taipei	-11.4942
▁Heathrow	-11.4943
▁juice	-11.4943
▁roast	-11.4944
▁hydro	-11.4944
▁1991	-11.4946
cell	-11.4949
▁breathing	-11.4949
▁mono	-11.495
▁retailer	-11.4951
▁Dominic	-11.4951
▁hunters	-11.4956
▁Additional	-11.4958
▁Fraser	-11.496
▁Hammond	-11.4961
▁affiliate	-11.4967
▁arrangement	-11.4968
▁Calais	-11.4968
▁iPhone	-11.4969
▁CCTV	-11.4969
▁Clinic	-11.497
▁Jesse	-11.497
▁Fat	-11.4973
▁immense	-11.4977
▁Sweden	-11.4977
▁attributed	-11.4977
▁brace	-11.4977
▁northwest	-11.4979
▁Carson	-11.4979
▁deck	-11.498
brand	-11.498
▁Girl	-11.4981
operative	-11.4984
▁suggestion	-11.4984
Most	-11.4984
▁Nearly	-11.4986
▁dramatically	-11.4988
▁Almost	-11.4988
▁oven	-11.4988
mill	-11.499
▁homepage	-11.4994
▁predecessor	-11.4994
▁Pirates	-11.4994
▁ultra	-11.4995
▁depart	-11.4996
▁cafe	-11.4997
▁Ur	-11.5
▁reinforce	-11.5003
▁bust	-11.5006
solv	-11.5007
▁Rao	-11.5008
▁conven	-11.5009
develop	-11.501
▁Sioux	-11.5012
▁ridiculous	-11.5012
▁safeguard	-11.5013
▁cheat	-11.5013
boat	-11.5016
▁humor	-11.5016
▁technique	-11.502
▁afterwards	-11.5023
▁refine	-11.5025
▁soup	-11.5025
▁coastal	-11.5026
▁protocol	-11.5029
▁enabling	-11.5029
▁Nar	-11.5034
▁Living	-11.5037
▁Glenn	-11.5037
▁exemption	-11.5038
▁diesel	-11.5039
▁Captain	-11.5039
oud	-11.5039
▁Grey	-11.5042
▁batter	-11.5042
▁Councillor	-11.5045
▁regulators	-11.5045
▁Gladstone	-11.5047
▁declaration	-11.5047
▁briefing	-11.5048
▁Brussels	-11.5056
▁Nebraska	-11.5056
start	-11.5057
ARD	-11.5061
▁confusion	-11.5064
▁isolated	-11.5064
▁revive	-11.5067
where	-11.5071
▁Quebec	-11.5073
▁equipped	-11.5073
▁attacker	-11.5074
▁Zika	-11.5077
▁slated	-11.5078
▁avoided	-11.5078
▁Commonwealth	-11.5082
▁decisive	-11.5082
▁recycling	-11.5082
▁cruel	-11.5082
▁Protest	-11.5084
rice	-11.5087
▁inappropriate	-11.5089
▁okay	-11.5091
▁implementing	-11.5091
▁Weiner	-11.5092
▁96	-11.5092
gua	-11.5093
▁Tory	-11.5095
▁Mack	-11.5097
▁CD	-11.5098
▁Pentagon	-11.51
▁Toowoomba	-11.51
▁Lower	-11.51
▁creep	-11.5101
motion	-11.5102
▁risen	-11.5104
▁teeth	-11.5106
▁negotiating	-11.5108
▁whistle	-11.5108
▁Mobile	-11.5109
▁sidewalk	-11.5112
▁Coleman	-11.5116
▁Cavaliers	-11.5117
▁unnecessary	-11.5117
▁intimate	-11.5117
▁spike	-11.512
▁wondering	-11.5122
aves	-11.5125
▁Hockey	-11.5126
▁anxious	-11.5126
from	-11.5129
lau	-11.5134
▁youngest	-11.5143
▁Innovation	-11.5144
▁Bernard	-11.5145
▁offset	-11.5145
square	-11.5145
▁scooter	-11.5153
▁deploy	-11.5153
▁Joan	-11.5154
▁hardest	-11.5157
▁Wigan	-11.516
connect	-11.516
▁achieving	-11.5161
▁fleeing	-11.5162
▁Scout	-11.5165
▁youngsters	-11.5167
gam	-11.5169
▁accord	-11.5171
▁Proposition	-11.5171
▁feared	-11.5174
▁Messi	-11.5174
▁incentives	-11.5175
▁midway	-11.5178
▁Lan	-11.5178
▁jersey	-11.5179
▁strategist	-11.5179
▁trusted	-11.5181
▁Pack	-11.5182
▁nightmare	-11.5188
President	-11.5188
clear	-11.5193
▁glove	-11.5197
script	-11.5198
▁6-1	-11.5198
▁Libya	-11.5198
▁minimal	-11.5198
▁sacked	-11.5199
▁Drew	-11.5199
▁Nav	-11.52
▁abandon	-11.5201
▁UNC	-11.5201
▁Giants	-11.5208
▁negotiate	-11.5209
minded	-11.521
▁stun	-11.5211
▁logo	-11.5215
▁1994	-11.5218
▁condemned	-11.5219
▁Rat	-11.5219
▁Magic	-11.5222
▁administer	-11.5224
▁stomach	-11.5224
▁powder	-11.5224
▁pronounced	-11.5224
▁GO	-11.5225
▁1984	-11.5228
▁uncertain	-11.523
▁allowance	-11.5233
▁criticised	-11.5234
▁Thanks	-11.5235
▁Joy	-11.5237
▁Nothing	-11.5238
▁impacted	-11.5238
▁Rodriguez	-11.5241
▁matched	-11.5241
▁wicket	-11.5248
▁Derek	-11.5251
▁bribe	-11.5251
comb	-11.5252
onia	-11.5252
▁revised	-11.5253
▁Georgetown	-11.5254
▁zoo	-11.5256
▁Salt	-11.5257
▁neighbor	-11.5259
▁92	-11.5259
▁violated	-11.5259
being	-11.5259
▁vacation	-11.5259
▁Managing	-11.5261
▁speeches	-11.5265
type	-11.5265
building	-11.5267
▁Forks	-11.5268
▁awful	-11.5268
▁entertaining	-11.5269
▁Half	-11.5271
▁Range	-11.5277
▁leverage	-11.5277
▁Mistry	-11.5277
▁Lagos	-11.5278
ffentlichung	-11.5286
▁courtesy	-11.5286
ulu	-11.5288
▁Denis	-11.5289
▁bug	-11.529
▁Fun	-11.529
abad	-11.5291
▁CF	-11.5293
▁quarterly	-11.5293
▁Reform	-11.5294
▁Tele	-11.5294
HL	-11.5294
Because	-11.5295
▁distinct	-11.5296
Meldung	-11.5296
▁Interstate	-11.5297
▁divert	-11.5297
▁Rather	-11.5301
▁Bern	-11.5302
▁ladies	-11.5304
▁refusing	-11.5304
sandart	-11.5305
▁intervene	-11.5306
NP	-11.5307
rier	-11.531
▁Nadu	-11.5315
▁Mumbai	-11.5322
▁contributor	-11.5322
▁grandfather	-11.5322
mini	-11.5322
Those	-11.5332
cross	-11.5333
▁Shin	-11.5337
Reporting	-11.5338
▁Bin	-11.5338
▁diagnosis	-11.534
▁hung	-11.5342
▁Eng	-11.5344
▁newest	-11.5346
hee	-11.5347
▁NE	-11.5348
▁declining	-11.5349
hurst	-11.5349
▁pork	-11.5351
▁poem	-11.5352
five	-11.5355
▁Butler	-11.5358
▁Pipeline	-11.5358
▁purchasing	-11.5358
▁resign	-11.5361
▁Brig	-11.5362
▁rehabilitation	-11.5367
▁uncomfortable	-11.5367
▁restoration	-11.5367
▁Upper	-11.5368
▁password	-11.5369
shore	-11.537
igg	-11.5373
▁protein	-11.5376
▁Training	-11.5377
▁northeast	-11.5377
▁salad	-11.5379
▁reopen	-11.538
▁Powell	-11.5381
▁kicking	-11.5383
▁cancelled	-11.5388
▁(“	-11.5388
▁assumptions	-11.5393
▁sustainability	-11.5395
▁Command	-11.5395
▁setback	-11.5396
still	-11.5398
▁partisan	-11.5399
acy	-11.5401
▁metro	-11.5402
▁Culture	-11.5404
▁programming	-11.5412
▁Doncaster	-11.5413
▁Wagner	-11.5413
▁undefeated	-11.5413
▁shark	-11.5413
▁fool	-11.5414
report	-11.5417
ease	-11.5417
▁Everton	-11.5418
▁Burr	-11.5421
▁bal	-11.5422
▁bullying	-11.5422
▁Knight	-11.5432
▁worthy	-11.5432
▁Indies	-11.5432
▁Poly	-11.5435
▁marking	-11.5439
▁mixture	-11.5441
crow	-11.5441
▁Karl	-11.5443
▁Help	-11.5443
▁Whi	-11.5445
▁Lamb	-11.5445
▁Indonesia	-11.5445
▁Yukon	-11.5449
-4)	-11.545
▁sealed	-11.5455
Neill	-11.5455
▁Nissan	-11.5458
IO	-11.5459
▁Kor	-11.5466
▁Budget	-11.5468
▁Diamond	-11.5468
▁convenient	-11.5468
lap	-11.5468
▁financially	-11.5468
▁scream	-11.5471
1.2	-11.5471
Gazette	-11.5477
▁extract	-11.548
▁pressing	-11.5484
▁Colombia	-11.5486
▁crisp	-11.5486
brow	-11.5487
Everyone	-11.5489
von	-11.5489
▁1993	-11.5489
▁greenhouse	-11.549
▁addresses	-11.5493
▁peer	-11.5493
▁delegate	-11.5495
mie	-11.5501
▁Municipal	-11.5504
▁Rubio	-11.5504
▁Rhode	-11.5504
▁WSU	-11.5505
▁dominate	-11.5508
▁Coun	-11.5509
present	-11.5511
▁gradually	-11.5513
▁occupied	-11.5516
▁Number	-11.5517
igu	-11.5518
▁colon	-11.5521
▁NOT	-11.5521
▁concussion	-11.5522
▁Battle	-11.5525
▁Full	-11.5526
▁borough	-11.5527
▁Investors	-11.5527
▁Tribe	-11.553
▁Wor	-11.553
▁sensor	-11.5532
NU	-11.5532
▁filmmaker	-11.5535
▁reviewing	-11.5535
▁heroes	-11.5536
▁allege	-11.5537
▁phenomenon	-11.5541
▁significance	-11.5541
▁Romney	-11.5541
▁frozen	-11.5541
▁Trafford	-11.5541
▁GE	-11.5542
security	-11.5542
▁united	-11.5547
▁NDP	-11.5548
research	-11.5552
scribe	-11.5553
▁Angela	-11.5553
▁lending	-11.5556
▁Legal	-11.5559
▁Kamloops	-11.5559
▁deflect	-11.5559
anti	-11.5559
▁Levi	-11.5559
▁trademark	-11.5564
▁Stay	-11.5565
iddle	-11.5567
▁Stamford	-11.5568
Pre	-11.5573
▁93	-11.5573
▁successor	-11.5575
▁Gene	-11.5576
▁kiss	-11.5579
zone	-11.558
▁Disney	-11.5581
storm	-11.5583
▁collaborate	-11.5587
▁dairy	-11.5587
plain	-11.5589
▁Sherman	-11.5589
astic	-11.559
▁Throughout	-11.559
▁dated	-11.5596
▁Technologies	-11.5596
▁curriculum	-11.5596
▁inevitable	-11.5596
▁Midlands	-11.5597
▁interactive	-11.56
▁Previous	-11.5606
▁snack	-11.5607
▁Step	-11.5607
emo	-11.5612
▁Between	-11.5615
▁Cab	-11.5616
▁Cop	-11.562
▁treaty	-11.562
master	-11.5621
▁observation	-11.5624
▁Norwalk	-11.5624
▁emotion	-11.5624
Well	-11.5624
harm	-11.5625
▁southeast	-11.5625
▁hyper	-11.5625
▁Shu	-11.5629
▁catching	-11.5629
national	-11.5633
IST	-11.5633
Israel	-11.5635
PM	-11.5636
▁£10	-11.5639
▁Try	-11.5641
▁Sai	-11.5642
▁Hundreds	-11.5642
▁shifted	-11.5645
▁slap	-11.5645
▁immun	-11.5647
▁educated	-11.5658
▁burglary	-11.566
▁Andrea	-11.566
▁creativity	-11.5661
▁loaded	-11.5661
▁admire	-11.5662
▁hum	-11.5662
▁gaming	-11.5662
▁vibrant	-11.567
▁Fen	-11.5672
▁Table	-11.5676
▁sang	-11.5678
▁homicide	-11.568
▁voluntary	-11.568
▁Maine	-11.5684
▁scholar	-11.5688
▁persuade	-11.5689
▁marched	-11.569
▁anthem	-11.569
▁insurer	-11.5692
RU	-11.5696
▁respondents	-11.5699
▁architecture	-11.5699
▁observe	-11.57
▁transformed	-11.5703
▁Companies	-11.5708
▁authorized	-11.5713
uga	-11.5715
▁tin	-11.5718
▁Brent	-11.5719
▁costly	-11.5719
ctive	-11.5721
▁enhanced	-11.5721
▁woke	-11.5722
▁4,000	-11.5724
▁clerk	-11.5726
▁mystery	-11.5727
4,000	-11.5731
changing	-11.5731
▁contrary	-11.5736
▁applicants	-11.5736
screen	-11.5739
vision	-11.5742
aid	-11.5744
uki	-11.5745
▁Airlines	-11.5745
▁initiated	-11.5746
▁Jill	-11.5749
ATION	-11.5751
▁anonymity	-11.5755
▁govern	-11.5763
▁Basketball	-11.5764
▁flexibility	-11.5764
▁utilize	-11.5764
▁KMT	-11.5764
▁strive	-11.5764
▁Warwick	-11.5766
▁berth	-11.5767
▁drilling	-11.5767
▁Using	-11.5767
▁Eye	-11.577
agged	-11.5773
▁passport	-11.5773
▁exclude	-11.5774
▁ICC	-11.5775
▁mega	-11.5775
▁lip	-11.5776
▁CBS	-11.5776
▁influenced	-11.5779
▁Active	-11.5781
▁Sessions	-11.5783
▁logistics	-11.5783
▁monetary	-11.5783
▁immigrant	-11.5783
rud	-11.5786
▁occasionally	-11.5786
hang	-11.5787
▁confidential	-11.5787
BE	-11.5789
▁cab	-11.579
▁correspond	-11.579
▁firmly	-11.5791
bag	-11.5791
▁misconduct	-11.5792
▁viewing	-11.5794
Sport	-11.5796
▁historically	-11.5797
▁91	-11.5799
▁awaiting	-11.5803
economic	-11.5805
encing	-11.5806
▁birdie	-11.5812
▁ounce	-11.5812
TR	-11.5813
did	-11.5817
name	-11.5819
▁Close	-11.5819
▁Akufo	-11.5821
▁spoil	-11.5821
▁Nicole	-11.5822
▁countless	-11.5823
▁Darren	-11.5824
▁08	-11.5825
reach	-11.5826
bol	-11.5827
▁reflection	-11.5828
▁Century	-11.583
▁concentration	-11.583
▁sensation	-11.583
▁Canyon	-11.583
▁slash	-11.5834
ogue	-11.5835
▁robber	-11.5837
▁6-0	-11.5839
strom	-11.5839
▁Greece	-11.584
▁Liz	-11.584
▁£7	-11.5843
▁NEXT	-11.5849
▁CM	-11.5849
▁sharply	-11.5852
▁Safe	-11.5852
▁Wrigley	-11.5859
▁bicycle	-11.5859
▁Shane	-11.586
▁displaced	-11.586
▁jumping	-11.5863
▁addict	-11.5863
elected	-11.5864
▁renowned	-11.5868
▁auditor	-11.5868
▁dependent	-11.5869
▁Chang	-11.587
▁MD	-11.5875
tax	-11.5875
▁Product	-11.5876
▁Netherlands	-11.5878
▁journal	-11.5882
▁blanket	-11.5882
▁Troy	-11.5882
▁priced	-11.5884
wai	-11.5887
▁viable	-11.5891
▁Bond	-11.5892
kha	-11.59
▁establishing	-11.5906
▁cemetery	-11.5906
▁Spa	-11.5907
bie	-11.5908
▁Janet	-11.591
▁Remember	-11.5911
▁Mine	-11.5911
▁Shanghai	-11.5916
▁artificial	-11.5916
▁educator	-11.5916
▁clue	-11.5916
▁Kerala	-11.5917
▁continuous	-11.5921
▁assumed	-11.5922
▁airstrikes	-11.5925
▁superintendent	-11.5925
▁0.1	-11.5926
▁worrying	-11.5926
▁excessive	-11.5928
.’”	-11.5929
▁Brendan	-11.5929
▁confrontation	-11.5931
agu	-11.5931
▁sued	-11.5932
▁outlined	-11.5936
▁exclusively	-11.5938
▁Rabbi	-11.5941
icide	-11.5941
▁Charleston	-11.5944
▁conventional	-11.5945
what	-11.5945
▁Rain	-11.5948
▁churches	-11.5949
▁Nicholas	-11.5954
▁warehouse	-11.5954
▁battled	-11.5954
▁mourn	-11.5954
▁polar	-11.5955
▁rub	-11.5957
▁Kit	-11.5958
▁Tommy	-11.5958
boro	-11.5961
▁Bemidji	-11.5964
▁occupation	-11.5964
▁Taliban	-11.5964
▁Kitchen	-11.5964
▁transparent	-11.5964
self	-11.5969
▁elaborate	-11.5973
Of	-11.5973
▁Sau	-11.5979
▁grid	-11.598
▁elder	-11.5982
▁distinguish	-11.5983
▁fracture	-11.5983
▁descend	-11.5983
▁habitat	-11.5984
DL	-11.599
▁demolish	-11.5992
▁Sierra	-11.5993
▁cease	-11.5993
▁skipper	-11.5995
▁hungry	-11.5995
▁undertake	-11.5996
▁Berry	-11.6
▁Rwanda	-11.6002
▁Erik	-11.6004
Mobil	-11.6004
▁devoted	-11.6006
▁Fur	-11.6008
songwriter	-11.601
▁internationally	-11.601
▁legendary	-11.6014
▁Too	-11.6016
▁execute	-11.6017
▁Base	-11.6018
▁Bron	-11.6019
▁absorb	-11.6021
▁Principal	-11.6021
▁aggravated	-11.6021
▁uncle	-11.6022
▁statue	-11.6022
▁Cold	-11.6023
6)	-11.6025
▁tab	-11.603
▁demonetisation	-11.6031
greg	-11.6037
▁blo	-11.6038
▁commissioned	-11.6038
▁Dame	-11.6039
▁bush	-11.6041
▁tele	-11.6042
trial	-11.6045
century	-11.6046
▁willingness	-11.6049
▁Fine	-11.605
▁mild	-11.6051
▁kilometres	-11.6051
▁Address	-11.6053
▁appreciated	-11.6053
rush	-11.6055
▁Neu	-11.6056
▁Catherine	-11.606
▁Entertainment	-11.606
▁Twenty	-11.606
▁socio	-11.6063
RP	-11.6065
▁crying	-11.6067
▁freshmen	-11.6067
▁applicable	-11.607
▁Jaguar	-11.607
▁verbal	-11.607
cycle	-11.607
▁spice	-11.6073
▁logic	-11.6076
▁Volunteer	-11.608
▁aviation	-11.608
▁murdered	-11.6081
▁cement	-11.6082
▁casting	-11.6083
▁Rou	-11.6083
▁offender	-11.6084
▁Brazilian	-11.6085
▁1950	-11.6085
▁Manitoba	-11.6089
▁introducing	-11.6089
▁Monroe	-11.6089
▁bolster	-11.6089
▁Shield	-11.6089
iano	-11.6094
▁Fast	-11.6094
▁canvas	-11.6095
wash	-11.6096
pra	-11.6097
ctu	-11.6098
OUR	-11.6099
▁stupid	-11.6099
▁BYU	-11.6099
▁dubbed	-11.6099
▁accounted	-11.6102
cultural	-11.6105
▁tram	-11.6106
▁Ruth	-11.6106
▁gesture	-11.6109
▁accusing	-11.6109
▁Wembley	-11.6109
▁overhaul	-11.6109
▁allocation	-11.6109
▁bitte	-11.611
▁Transit	-11.6112
ocket	-11.6113
▁hence	-11.6113
▁pressed	-11.6119
▁dirty	-11.6121
▁oust	-11.6124
GC	-11.6124
▁convincing	-11.6128
▁tally	-11.613
▁Web	-11.6133
▁wipe	-11.6133
▁Wool	-11.6133
▁enabled	-11.6133
▁Poland	-11.6135
▁functional	-11.6136
▁retro	-11.6138
▁Job	-11.6142
effective	-11.6144
▁Div	-11.6146
▁dear	-11.6147
▁stride	-11.6148
▁Multi	-11.6148
:20	-11.6149
ears	-11.6149
▁leaf	-11.6149
▁startup	-11.615
:30	-11.615
▁incentive	-11.6152
▁assessed	-11.6156
▁Alexandria	-11.6158
▁adjacent	-11.6158
▁worries	-11.6158
▁emphasized	-11.6163
▁anticipate	-11.6166
DM	-11.6167
chair	-11.6167
▁CITY	-11.6167
▁cautious	-11.6167
▁gonna	-11.6167
▁distract	-11.6172
political	-11.6174
▁180	-11.6177
▁Cincinnati	-11.6177
▁diminish	-11.6177
allow	-11.6178
▁wooden	-11.6178
▁Maha	-11.6179
MK	-11.6181
▁RBI	-11.6182
▁meantime	-11.6184
▁artwork	-11.6193
▁thorough	-11.6193
▁Shak	-11.6196
itude	-11.6197
▁bore	-11.6199
▁newcomer	-11.6203
▁Worth	-11.6206
▁Hassan	-11.6207
▁basement	-11.6208
▁diplomat	-11.6209
▁4-2	-11.6209
track	-11.621
▁elephant	-11.6216
▁worship	-11.6216
▁compliment	-11.6216
BO	-11.6217
▁profound	-11.6218
▁outlet	-11.6218
▁confront	-11.6222
cio	-11.6224
▁Gau	-11.6225
▁essay	-11.6226
▁ought	-11.6228
▁tougher	-11.6228
▁chore	-11.6228
▁cult	-11.6229
▁Barnes	-11.6232
▁breakdown	-11.6233
ledge	-11.6234
▁Password	-11.6236
▁Politics	-11.6236
:40	-11.6237
lene	-11.6241
controlled	-11.6243
▁allocated	-11.6244
▁Halifax	-11.6246
▁entities	-11.6246
▁stint	-11.6246
▁connectivity	-11.6247
▁Leigh	-11.6252
pec	-11.6253
▁policing	-11.6256
▁Armstrong	-11.6256
vant	-11.6261
▁disposal	-11.6266
▁sneak	-11.6266
▁Therefore	-11.6266
RR	-11.6267
PE	-11.6267
▁Within	-11.6267
▁identifying	-11.6268
▁stack	-11.6268
▁laughing	-11.627
ploy	-11.6271
▁Customer	-11.6276
▁sequence	-11.6276
▁competed	-11.6277
▁Milan	-11.6279
▁scientist	-11.6283
▁Survey	-11.6286
▁Curtis	-11.6286
▁Wolves	-11.6286
▁Gareth	-11.6287
▁gunshot	-11.6287
▁columnist	-11.6289
EAR	-11.6289
▁presenting	-11.6291
▁Jackie	-11.6295
▁tattoo	-11.6296
▁neighbouring	-11.6296
deep	-11.6298
▁feeding	-11.6299
▁Oban	-11.6302
▁tackling	-11.6305
▁endless	-11.6311
▁guided	-11.6312
,700	-11.6312
▁Foley	-11.6313
▁reluctant	-11.6315
▁spreading	-11.6316
GO	-11.6319
▁Morning	-11.632
▁honey	-11.632
▁Engineer	-11.6321
▁130	-11.6322
▁Schmidt	-11.6325
▁Raja	-11.633
▁supplier	-11.6334
▁Champaign	-11.6335
▁Inside	-11.6341
lash	-11.6341
they	-11.6341
gon	-11.6342
▁5-0	-11.6344
▁20,000	-11.6345
▁Brisbane	-11.6345
▁analyze	-11.6345
▁retained	-11.6349
‘	-11.6352
▁deportation	-11.6353
▁taxpayer	-11.6355
▁inaugural	-11.6355
▁pregnancy	-11.6355
▁Flynn	-11.6355
▁hiding	-11.6355
Elect	-11.6356
▁Civic	-11.6356
▁Burke	-11.6356
▁Secondary	-11.6361
▁Moreover	-11.6364
▁Nancy	-11.6365
▁Join	-11.6366
▁undergraduate	-11.6367
▁commuter	-11.6368
▁aiming	-11.6369
rmo	-11.6373
▁chancellor	-11.6375
▁shooter	-11.6381
▁restricted	-11.6383
▁scout	-11.6384
▁Shore	-11.6385
▁monument	-11.6385
▁satisfaction	-11.6385
smith	-11.6385
about	-11.6385
▁cord	-11.6387
▁Sum	-11.6388
▁Feb	-11.6389
atta	-11.639
etz	-11.6392
▁dock	-11.6392
OTC	-11.6393
▁releasing	-11.6395
▁Maj	-11.6398
▁rescued	-11.6401
▁recount	-11.6402
▁mindset	-11.6402
complete	-11.6403
business	-11.6403
▁rated	-11.6406
▁reckless	-11.6406
▁Hansen	-11.6408
▁anonymous	-11.6411
▁retiring	-11.6415
▁Isaac	-11.6416
▁barrier	-11.6418
▁cookie	-11.6428
HER	-11.6432
center	-11.6432
▁stir	-11.6435
▁apologise	-11.6435
▁accompany	-11.6435
▁Pope	-11.6438
▁Stop	-11.6439
▁screaming	-11.6443
▁grill	-11.6443
▁Finn	-11.6445
▁Track	-11.6445
▁Recreation	-11.6446
▁disgust	-11.6446
country	-11.6447
▁Noah	-11.6447
design	-11.645
expect	-11.6453
ova	-11.6455
▁homelessness	-11.6455
▁escort	-11.6456
▁Porter	-11.6459
▁quest	-11.6462
▁Zone	-11.6463
▁RB	-11.6464
▁misdemeanor	-11.6466
▁Wyoming	-11.6466
▁burial	-11.6466
▁garner	-11.6466
▁Tip	-11.6466
▁adverse	-11.6467
▁Chapman	-11.6468
charge	-11.6468
worthy	-11.647
▁Prison	-11.6472
Once	-11.6475
▁horizon	-11.6476
▁shield	-11.6476
▁0.3	-11.6476
▁RT	-11.6477
▁Pit	-11.6478
▁pretend	-11.6479
Reuters	-11.6484
▁AFC	-11.6485
MD	-11.6489
▁Spec	-11.6491
▁Technical	-11.6496
▁breakthrough	-11.6497
▁examined	-11.6497
▁Reno	-11.65
▁rational	-11.6501
▁hug	-11.6503
Yeah	-11.6503
cost	-11.6504
▁Pea	-11.6512
▁grey	-11.6513
▁summon	-11.6518
bha	-11.6521
▁trim	-11.6522
▁bay	-11.6523
▁Temp	-11.6524
establish	-11.6525
▁Minn	-11.6526
▁comedian	-11.6527
▁seminar	-11.6528
▁Jail	-11.6528
▁Netanyahu	-11.6532
▁1,500	-11.6534
▁contested	-11.6535
State	-11.6536
▁Chennai	-11.6537
▁centuries	-11.6537
Phone	-11.6537
▁Meeting	-11.6538
riot	-11.6541
▁pants	-11.6544
▁Anton	-11.6545
oriented	-11.6546
▁abused	-11.6547
arco	-11.6549
▁Brett	-11.6556
▁magnitude	-11.6557
ulous	-11.6565
▁QB	-11.6567
▁precious	-11.6567
▁Simpson	-11.6567
▁dignity	-11.6567
▁Cayman	-11.6567
▁interrupt	-11.6567
▁severely	-11.6567
▁Vijay	-11.6568
psy	-11.657
▁linger	-11.6571
$2	-11.6573
Bar	-11.6574
nova	-11.6577
▁Southampton	-11.6577
▁partially	-11.6577
Reilly	-11.6578
▁McD	-11.6578
▁underlying	-11.658
▁bowling	-11.6582
▁Nazi	-11.6583
▁photography	-11.6583
▁Stand	-11.6585
October	-11.6586
▁Lloyd	-11.6588
▁litigation	-11.6588
▁slim	-11.659
▁Late	-11.6593
▁0.5	-11.6595
▁Tottenham	-11.6598
▁chemistry	-11.6598
▁fond	-11.6598
▁Technavio	-11.6599
DR	-11.6603
author	-11.6607
▁Airbnb	-11.6608
▁disadvantage	-11.6608
▁Merkel	-11.6609
peak	-11.6609
▁Leadership	-11.661
▁Morton	-11.661
▁NW	-11.6611
driven	-11.6613
▁migration	-11.6618
girl	-11.6618
▁snapped	-11.662
▁poised	-11.6621
guin	-11.6621
▁Meyer	-11.6622
▁miners	-11.6623
kwa	-11.6625
dog	-11.6626
Donald	-11.6626
west	-11.6627
▁technological	-11.6629
▁valley	-11.6629
▁Branch	-11.663
▁Tiger	-11.6631
▁mentality	-11.6634
▁2-2	-11.6635
lane	-11.6635
▁switched	-11.6635
placed	-11.6636
▁contention	-11.6638
▁regarded	-11.6639
▁Gonzalez	-11.6639
▁candidacy	-11.6639
▁dessert	-11.6639
ifies	-11.6639
▁backward	-11.664
-28	-11.6644
▁Everything	-11.6649
▁Wol	-11.6649
▁smashed	-11.6654
▁notably	-11.6657
▁instant	-11.6657
ovic	-11.666
▁cornerback	-11.666
▁Morocco	-11.667
▁Swedish	-11.667
▁certification	-11.667
TSX	-11.667
▁Kemp	-11.6672
ographic	-11.6673
▁5:30	-11.6673
▁sandwich	-11.6674
▁successive	-11.6674
▁clearance	-11.6676
▁suck	-11.6681
▁chasing	-11.6682
▁helmet	-11.6684
▁Dragon	-11.6685
funded	-11.6687
▁arguably	-11.669
▁portrait	-11.669
▁Baldwin	-11.669
pop	-11.6692
▁Interior	-11.6694
-27	-11.6694
▁makeup	-11.6699
▁Cond	-11.6699
▁separated	-11.6699
green	-11.67
▁unsuccessful	-11.6701
▁indicator	-11.6701
▁Fellow	-11.6701
▁dementia	-11.6701
▁Soccer	-11.6701
▁Sweet	-11.6701
▁baking	-11.6701
▁Rule	-11.6701
▁characteristic	-11.6703
leaning	-11.6703
▁Davidson	-11.6706
▁Tha	-11.6706
▁usage	-11.6709
▁Weather	-11.6713
▁Bengal	-11.6715
▁911	-11.6715
▁measured	-11.6716
▁refusal	-11.6721
▁parallel	-11.6721
▁garlic	-11.6721
ody	-11.6723
▁Reagan	-11.6724
▁Peru	-11.6725
▁dip	-11.6726
▁finishes	-11.6727
▁privately	-11.6728
▁2016-17	-11.6729
▁Affordable	-11.6732
▁Crawford	-11.6732
▁Medicare	-11.6732
▁Plain	-11.6732
▁accordance	-11.6733
osis	-11.6742
▁automotive	-11.6742
▁Happy	-11.6742
▁Location	-11.6742
three	-11.6744
PG	-11.6744
▁shareholder	-11.6745
aze	-11.6746
bone	-11.6748
▁Rush	-11.675
owski	-11.675
▁Metropolitan	-11.6752
▁Traffic	-11.6752
▁Beacon	-11.6752
▁varsity	-11.6763
▁Clay	-11.6763
▁Leave	-11.6767
▁Cork	-11.6768
▁Gael	-11.6771
▁Weber	-11.6771
▁surpass	-11.6773
Na	-11.6775
hip	-11.6778
▁epic	-11.678
▁disclose	-11.6782
▁Djokovic	-11.6784
▁affidavit	-11.6784
▁inspiring	-11.6784
▁reiterated	-11.6784
▁compelling	-11.6784
▁regulator	-11.6793
▁McCarthy	-11.6794
▁blew	-11.6796
culture	-11.6797
▁Side	-11.6801
▁0-0	-11.6803
▁FREE	-11.6805
▁blessing	-11.6805
ference	-11.6805
▁marketplace	-11.6805
▁homecoming	-11.6806
▁amend	-11.6806
viol	-11.6808
▁prospective	-11.681
▁hail	-11.6812
kle	-11.6818
▁dial	-11.6825
▁Keystone	-11.6827
ural	-11.6827
▁Wick	-11.6828
▁preach	-11.6829
▁Scha	-11.6831
tress	-11.6831
uh	-11.6832
▁bosses	-11.6834
▁yoga	-11.6836
▁inherit	-11.6837
▁hugely	-11.6846
▁Advance	-11.6846
▁crush	-11.6849
▁piano	-11.6852
▁File	-11.6854
▁hunger	-11.6855
▁counting	-11.6855
▁Griffin	-11.6857
▁eliminated	-11.6863
valuation	-11.6866
▁Cape	-11.6866
▁Edge	-11.6866
£	-11.6866
Last	-11.6867
writing	-11.6868
Since	-11.6868
▁credited	-11.6868
bear	-11.6869
▁Grade	-11.6872
▁Fitzgerald	-11.6878
▁evacuated	-11.6878
▁$500	-11.688
▁trailed	-11.688
Many	-11.688
▁organise	-11.6882
▁offshore	-11.6885
▁Vance	-11.6885
▁boxing	-11.6886
tree	-11.6886
▁distribute	-11.6887
speed	-11.6888
▁demolition	-11.6888
▁affirm	-11.6889
▁meters	-11.689
▁visitor	-11.6895
▁bearing	-11.6895
▁tide	-11.6897
▁Congo	-11.6909
▁await	-11.6909
▁Tesla	-11.691
▁livestock	-11.6912
agan	-11.6915
▁Programme	-11.6918
mobil	-11.6919
▁grind	-11.692
▁sq	-11.6923
▁Santos	-11.6924
▁potatoes	-11.6925
▁Yan	-11.6929
▁coincide	-11.693
▁slam	-11.693
▁Mustangs	-11.6931
▁celebrities	-11.6931
▁110	-11.6932
▁Knox	-11.6932
TOR	-11.6939
▁expectation	-11.694
▁Conservation	-11.6941
▁Karnataka	-11.6941
▁Lopez	-11.6941
▁Yellow	-11.6941
▁Save	-11.6943
▁scru	-11.6946
▁surprisingly	-11.6947
▁deliberate	-11.6948
feld	-11.6948
▁Woman	-11.6949
▁printed	-11.6953
▁expressing	-11.6954
Website	-11.6955
▁Jazz	-11.6956
▁Sue	-11.6959
▁unanimously	-11.6962
ggie	-11.6962
▁permitted	-11.6963
▁magical	-11.6967
▁Nolan	-11.697
▁refund	-11.697
chel	-11.6972
dded	-11.6972
▁Norfolk	-11.6973
▁tribunal	-11.6973
zzo	-11.6974
▁Prevention	-11.6974
▁parole	-11.6974
▁overturned	-11.6975
augh	-11.6975
uke	-11.6977
▁echo	-11.6978
▁Barton	-11.698
▁donor	-11.698
▁Commercial	-11.6984
IVE	-11.699
▁Guide	-11.6992
strict	-11.6993
chief	-11.6994
▁illustrate	-11.6994
▁Krishna	-11.6995
cision	-11.6998
▁Leo	-11.7
estimate	-11.7001
▁ecosystem	-11.7005
▁transmission	-11.7006
Company	-11.7006
▁haunt	-11.7007
▁Vel	-11.7009
▁midst	-11.701
▁bubble	-11.7014
▁UFC	-11.7015
▁Magazine	-11.7016
▁imagination	-11.7016
▁sculpture	-11.7016
call	-11.7016
▁Jeffrey	-11.7016
▁listened	-11.7019
▁Gru	-11.7019
▁Less	-11.7019
tention	-11.7024
▁mobility	-11.7026
▁Ridgefield	-11.7029
▁honestly	-11.7033
▁rivalry	-11.7035
▁enrolled	-11.7036
▁Cultural	-11.7037
▁Together	-11.7037
▁glimpse	-11.7037
▁garbage	-11.7037
▁upward	-11.704
Or	-11.7044
▁clashes	-11.7046
▁juvenile	-11.7048
▁cellphone	-11.7048
▁qualities	-11.7058
▁1989	-11.7063
▁$10,000	-11.7064
▁Clear	-11.7067
▁depriv	-11.7069
3-4	-11.7074
▁Capt	-11.7074
▁swap	-11.7075
▁Beyond	-11.708
▁unchanged	-11.708
▁Lincolnshire	-11.7081
▁collaborative	-11.7091
▁fantasy	-11.7091
▁Coffee	-11.7091
▁Abuja	-11.7092
▁Yemen	-11.7093
▁Kla	-11.7094
▁Distribut	-11.7094
▁Rovers	-11.7095
▁edged	-11.7096
▁Production	-11.7096
▁140	-11.7099
▁streaming	-11.71
▁Hood	-11.7101
▁Intelligence	-11.7101
▁receipt	-11.7101
▁throat	-11.7101
▁wrist	-11.7103
▁Host	-11.7109
▁standout	-11.7121
▁Statistics	-11.7123
▁sophisticated	-11.7123
▁Plaza	-11.7123
▁outbreak	-11.7124
including	-11.7125
▁fancy	-11.7128
ELL	-11.7129
TP	-11.7131
ucci	-11.7133
▁Crystal	-11.7134
▁fascinating	-11.7134
▁Scan	-11.7135
▁observers	-11.7136
▁conscious	-11.7137
▁1986	-11.7139
▁searched	-11.7139
▁Cricket	-11.7144
▁choir	-11.7145
▁derby	-11.7145
▁dose	-11.7147
▁Bowie	-11.7147
▁Gamb	-11.7148
▁halfway	-11.7154
▁militant	-11.7156
▁figured	-11.7158
igi	-11.7159
▁assure	-11.7161
▁Tell	-11.7163
ACK	-11.7165
▁tolerate	-11.7169
asco	-11.7169
UD	-11.7171
▁demon	-11.7171
▁Megan	-11.7176
▁pharmaceutical	-11.7177
▁healing	-11.7177
▁Dad	-11.7177
▁6-2	-11.7177
▁(11	-11.7179
South	-11.7181
▁cautioned	-11.7184
▁Robertson	-11.7184
▁prompting	-11.7187
▁placement	-11.7188
Addo	-11.7191
▁Sugar	-11.7191
▁wit	-11.7193
▁troubled	-11.7196
▁laying	-11.7197
▁Ambulance	-11.7199
▁indictment	-11.7199
▁hurdle	-11.7199
▁Melbourne	-11.7199
▁hospitality	-11.7202
▁hatred	-11.7202
▁rapper	-11.7204
Har	-11.7205
▁hood	-11.7209
▁Nobel	-11.7209
▁magistrate	-11.721
▁disappear	-11.721
▁chunk	-11.7211
▁bout	-11.7212
Mart	-11.7212
▁similarly	-11.7215
▁whisk	-11.7218
/11/16	-11.722
▁Rockhampton	-11.722
▁flank	-11.7221
▁tee	-11.7222
▁Const	-11.7224
urge	-11.7228
▁recreation	-11.723
▁Industries	-11.7231
▁Petroleum	-11.7231
▁awkward	-11.7231
▁intensive	-11.7231
▁persist	-11.7231
▁Perkins	-11.7233
▁Joyce	-11.7234
▁Township	-11.7237
▁harmful	-11.7238
▁legalization	-11.724
▁attracting	-11.7241
pose	-11.7241
▁finalists	-11.7245
▁lifting	-11.7246
▁instrumental	-11.7246
▁leaked	-11.7248
▁Wang	-11.7248
▁Blo	-11.7248
▁bloc	-11.7248
▁Organisation	-11.7253
▁explicit	-11.7253
▁wheelchair	-11.7253
▁plug	-11.7254
▁LGBTQ	-11.7254
▁Romanian	-11.7256
scape	-11.726
▁broadcaster	-11.7261
▁Reynolds	-11.7264
▁Adrian	-11.7266
▁Montana	-11.7266
bili	-11.7266
▁Sunni	-11.7266
▁Ground	-11.7267
▁Working	-11.7268
▁arranged	-11.7269
▁bounced	-11.727
▁Maple	-11.727
invest	-11.7271
PORT	-11.7273
▁Harper	-11.7274
sports	-11.7274
▁quietly	-11.7274
▁abilities	-11.7275
▁Picture	-11.7275
human	-11.7278
▁clam	-11.7281
▁robot	-11.7282
▁buyer	-11.7283
▁Plant	-11.7284
source	-11.7285
▁Mind	-11.7285
▁Christine	-11.7289
▁Martinez	-11.7289
▁Rocky	-11.7292
SON	-11.7294
▁concede	-11.7295
▁Due	-11.7296
▁mag	-11.7297
▁notorious	-11.7297
▁Consider	-11.7297
▁Song	-11.7297
▁owed	-11.7298
▁Bud	-11.7304
▁dirt	-11.7306
▁Pioneer	-11.7308
▁priest	-11.7308
▁Quinn	-11.7309
▁trailing	-11.7311
keeping	-11.7312
▁Solar	-11.7317
▁contradict	-11.7319
▁Snyder	-11.7319
▁curve	-11.732
▁parcel	-11.732
▁BR	-11.7323
uster	-11.7323
paid	-11.7324
▁Cities	-11.7325
▁compiled	-11.7327
▁viral	-11.733
▁dragged	-11.7331
▁Chuck	-11.7334
▁batting	-11.7335
▁proving	-11.7337
▁flee	-11.7338
▁Cafe	-11.7339
LM	-11.7341
▁Cemetery	-11.7341
▁Datuk	-11.7341
▁Cardiff	-11.7341
▁blown	-11.7341
▁Shannon	-11.7342
▁classical	-11.7343
▁sprint	-11.7344
Sometimes	-11.7344
▁McGregor	-11.7352
▁disturbing	-11.7352
▁monster	-11.7352
▁beneath	-11.7352
▁desperately	-11.7355
▁Northeast	-11.7357
▁slowed	-11.7362
▁adjusted	-11.7362
▁Rebecca	-11.7363
▁Summary	-11.7363
▁Train	-11.7363
▁Boat	-11.7366
▁harass	-11.7372
▁reaches	-11.7374
▁possibilities	-11.7374
▁solidarity	-11.7374
▁structural	-11.7374
▁motive	-11.7374
▁Abedin	-11.7375
▁lineman	-11.7375
▁Fab	-11.7376
▁oversight	-11.7376
▁retake	-11.7377
▁dorm	-11.7381
▁teaspoon	-11.7385
▁Yadav	-11.7385
▁dug	-11.7386
▁Advisory	-11.7394
▁disappeared	-11.7395
▁backdrop	-11.7396
▁Would	-11.7397
▁confused	-11.7397
iko	-11.7405
▁cargo	-11.7407
▁greet	-11.7409
vention	-11.7413
▁Case	-11.7414
▁neighbour	-11.7415
▁kicker	-11.7421
▁Perez	-11.7421
▁Sci	-11.7429
▁flavour	-11.7429
▁kilometers	-11.743
isa	-11.7431
▁capability	-11.7432
▁Wake	-11.7433
RL	-11.7436
▁finest	-11.7437
▁Haley	-11.7438
▁Subscribe	-11.7439
▁sweeping	-11.744
▁bronze	-11.7441
▁poorly	-11.7449
inda	-11.7449
▁Libertarian	-11.7452
▁intimidation	-11.7452
▁Hours	-11.7453
uku	-11.7454
friend	-11.7455
▁Kab	-11.7459
scoring	-11.7461
▁suppress	-11.7463
▁Harvey	-11.7463
▁Bedford	-11.7463
▁analyse	-11.7463
Col	-11.7466
▁beans	-11.7469
AST	-11.7472
▁Lancaster	-11.7474
▁MVP	-11.7474
▁entries	-11.7475
▁Norway	-11.7479
▁neo	-11.7479
▁6-3	-11.7483
▁wondered	-11.7483
▁Secret	-11.7484
▁romantic	-11.7485
▁subsidies	-11.7485
▁Gandhi	-11.7485
ongo	-11.7489
▁committing	-11.749
▁Mario	-11.7495
▁intercepted	-11.7495
▁casualties	-11.7497
▁vow	-11.7499
▁USD	-11.7503
▁bare	-11.7506
▁confirmation	-11.7507
▁Bristol	-11.7508
▁Candidate	-11.7508
▁debris	-11.7508
ambo	-11.7508
▁creator	-11.7511
▁Nature	-11.7511
people	-11.7512
▁teaches	-11.7515
▁Investigators	-11.7519
▁UNESCO	-11.7519
▁clarity	-11.7519
▁packaging	-11.7519
▁printing	-11.7521
▁copies	-11.7522
▁Artist	-11.7524
▁liquor	-11.753
▁worn	-11.7532
▁feat	-11.7535
▁commentary	-11.7536
▁curious	-11.7543
▁controlling	-11.7545
▁Amb	-11.7552
▁patience	-11.7552
Akron	-11.756
▁cure	-11.7564
▁evolution	-11.7564
▁uphold	-11.7567
▁HR	-11.7572
INS	-11.7573
▁350	-11.7573
▁robbed	-11.7575
▁tissue	-11.7576
nik	-11.7576
▁Thomson	-11.7581
▁knocking	-11.7586
▁composed	-11.7586
▁gratitude	-11.7586
▁radar	-11.7586
▁crunch	-11.7587
▁Travis	-11.7588
▁sooner	-11.7589
▁Ibrahim	-11.7597
▁Want	-11.7597
▁historian	-11.7598
▁Cher	-11.76
▁Sophomore	-11.7609
▁interference	-11.761
▁Stro	-11.7613
spinner	-11.7615
▁rehab	-11.7616
pg	-11.7617
▁Sacramento	-11.762
▁generating	-11.762
▁optimism	-11.762
▁scramble	-11.762
▁Spirit	-11.762
▁stiff	-11.762
▁Kenyatta	-11.7621
▁Corey	-11.7623
▁Always	-11.7632
▁Leg	-11.7635
▁Maz	-11.7637
▁Lanka	-11.7638
▁Northwestern	-11.7643
▁stab	-11.7643
▁exempt	-11.7644
▁Nigel	-11.7645
▁Dark	-11.7647
▁absent	-11.7653
▁sterling	-11.7654
▁$1,000	-11.7655
▁remainder	-11.7656
▁notification	-11.7656
▁subtle	-11.7659
▁thoroughly	-11.7659
▁Aviation	-11.7666
▁sponsorship	-11.7668
▁Cash	-11.7668
▁Durant	-11.7669
▁enthusiastic	-11.767
▁batch	-11.767
gmail	-11.7673
▁icon	-11.7675
MU	-11.7675
endra	-11.7675
hearted	-11.7677
▁precaution	-11.7677
▁Concert	-11.7678
▁overdose	-11.7678
▁redshirt	-11.7679
▁Monte	-11.7679
▁strengthening	-11.768
▁Thousands	-11.7688
▁consolidate	-11.7688
▁glory	-11.7688
▁entity	-11.7689
▁Amanda	-11.769
fy	-11.769
▁Munster	-11.769
▁embraced	-11.769
▁stronghold	-11.7693
ggy	-11.7694
▁narrowly	-11.7697
▁cooked	-11.77
▁Buhari	-11.77
▁Nashville	-11.77
▁hybrid	-11.77
▁Wonder	-11.77
▁Bag	-11.7704
▁SAN	-11.7705
▁dwell	-11.7707
limb	-11.7709
▁ranch	-11.7709
▁NSW	-11.7711
▁legalize	-11.7713
▁270	-11.7714
▁Plat	-11.7715
▁Deal	-11.7715
food	-11.7722
▁unleash	-11.7723
▁imported	-11.7723
TED	-11.7725
▁Clayton	-11.7726
▁Retail	-11.7726
▁chop	-11.7727
▁faction	-11.7727
leigh	-11.7728
▁outsider	-11.7731
Can	-11.7733
▁gambling	-11.7734
tempo	-11.7734
▁Pierre	-11.7734
▁Chef	-11.7735
▁climbing	-11.7737
▁betting	-11.7738
▁vegetable	-11.7741
▁Mala	-11.7746
▁Griffith	-11.7746
▁Hernandez	-11.7746
▁Hopkins	-11.7746
▁credibility	-11.7746
▁unbelievable	-11.7746
▁Taking	-11.7752
▁Coming	-11.7752
▁cave	-11.7753
▁Bolton	-11.7755
▁Recently	-11.7757
fair	-11.7757
▁predator	-11.776
▁workout	-11.776
▁deliberately	-11.7761
▁pact	-11.7761
▁defect	-11.7764
LAND	-11.7768
▁Welfare	-11.7769
▁fishermen	-11.7769
▁Bench	-11.7769
▁Mater	-11.777
▁lemon	-11.7771
▁poly	-11.7771
▁Cover	-11.7773
anza	-11.7774
▁108	-11.778
▁ammunition	-11.778
▁Schu	-11.7781
▁commonly	-11.7783
▁Title	-11.7784
▁borrowing	-11.7787
▁weighed	-11.7791
▁$40	-11.7796
▁amended	-11.7796
▁carpet	-11.7798
▁Klopp	-11.7803
▁Iceland	-11.7803
▁Collector	-11.7804
▁consistency	-11.7804
▁nasty	-11.7805
▁hardware	-11.7808
▁1988	-11.7811
▁Pala	-11.7812
▁marker	-11.7814
▁Spartans	-11.7815
▁Tai	-11.7816
▁Death	-11.7819
▁Addo	-11.7821
▁cluster	-11.7826
▁occupy	-11.7826
▁composition	-11.7826
▁pave	-11.7829
▁shootout	-11.7831
▁devastated	-11.7838
▁Nottingham	-11.7838
▁Pizza	-11.7838
forward	-11.7838
▁Spurs	-11.7839
▁olive	-11.7839
▁wholesale	-11.784
▁archive	-11.7842
▁Dyn	-11.7845
▁Nobody	-11.7845
▁Myers	-11.7847
▁surgeon	-11.7848
▁mushroom	-11.7849
▁prosperity	-11.7849
▁Mitch	-11.7851
Will	-11.7853
▁Sandy	-11.7854
▁Lance	-11.7856
▁presenter	-11.7857
▁nightclub	-11.7861
▁Self	-11.7863
Who	-11.7865
▁horrible	-11.7873
▁Flyers	-11.7873
▁True	-11.7875
▁Calif	-11.7876
▁Eat	-11.7878
▁premiere	-11.7879
Brexit	-11.788
▁Stephanie	-11.7884
▁evacuation	-11.7884
▁nephew	-11.7884
▁supplied	-11.7884
▁undertaken	-11.7884
▁stabbing	-11.7885
▁persistent	-11.7886
▁Jared	-11.7892
▁Earl	-11.7893
▁Fresh	-11.7894
▁Cody	-11.7894
▁filter	-11.7896
▁comprise	-11.7896
▁NGO	-11.79
credit	-11.7907
▁Vermont	-11.7909
▁Downtown	-11.791
▁ref	-11.7911
▁lovers	-11.7915
▁CSU	-11.7916
▁vendor	-11.7919
▁isolation	-11.792
▁Norwich	-11.792
▁supervision	-11.792
▁7.30	-11.792
▁issuing	-11.7921
▁immune	-11.7925
▁Reddy	-11.7926
record	-11.7927
John	-11.7927
▁Revolution	-11.7931
▁mosquito	-11.7931
▁Luton	-11.7931
▁Furthermore	-11.7932
▁suburban	-11.7937
▁0.4	-11.794
▁Heather	-11.7942
strong	-11.7942
▁happiness	-11.7943
▁slammed	-11.7943
UE	-11.7946
finite	-11.7946
▁Kro	-11.7948
▁Clean	-11.795
lake	-11.7951
▁offseason	-11.7954
▁Performance	-11.7954
▁judiciary	-11.7954
▁spec	-11.7958
▁shade	-11.796
▁Ethiopia	-11.7966
▁analytics	-11.7966
▁cycling	-11.7966
lessness	-11.797
▁Rosen	-11.797
▁Thai	-11.797
▁Wait	-11.7972
cam	-11.7973
close	-11.7974
▁Emirates	-11.7978
▁rubber	-11.7979
▁Zoo	-11.7984
trained	-11.7985
▁$100,000	-11.7986
space	-11.7987
▁denies	-11.799
▁squeeze	-11.799
▁Dawson	-11.799
▁Brighton	-11.799
▁4-3	-11.799
▁reckon	-11.799
▁Telegraph	-11.799
trans	-11.7993
▁Biden	-11.7994
▁loyalty	-11.8005
▁wherever	-11.8011
▁default	-11.8013
▁raped	-11.8014
▁organisers	-11.8015
▁excel	-11.8025
MENT	-11.8026
▁Basin	-11.8028
▁Representative	-11.8028
▁Gilbert	-11.8029
▁relay	-11.8032
COM	-11.8033
attack	-11.8036
▁surplus	-11.8037
ride	-11.8037
▁damn	-11.8038
▁procurement	-11.8038
borne	-11.804
Ben	-11.8041
▁Bentley	-11.8049
▁Voice	-11.8051
▁Heath	-11.806
▁helm	-11.8063
3-5	-11.8065
▁neighboring	-11.8069
▁distributor	-11.8072
▁inviting	-11.8072
▁Ravi	-11.8074
▁Drake	-11.8079
Off	-11.808
▁relaxed	-11.8082
9,000	-11.8083
▁Mediterranean	-11.8084
▁reassure	-11.8084
▁Lyon	-11.8086
▁replay	-11.8087
▁dread	-11.8087
▁Whatever	-11.8088
stick	-11.8092
▁fatally	-11.8093
▁minus	-11.8093
▁backlash	-11.8094
▁(12	-11.8096
▁dictator	-11.8096
▁rope	-11.8101
▁selfie	-11.8101
▁Word	-11.8102
▁footprint	-11.8109
▁acute	-11.8109
▁Yi	-11.8114
▁shouting	-11.8114
because	-11.8117
▁Cunningham	-11.812
▁Marathon	-11.812
▁injustice	-11.812
▁pleasant	-11.812
▁Learn	-11.8122
▁2015-16	-11.8122
▁Bang	-11.8127
▁cyclist	-11.8132
grand	-11.8132
▁Clare	-11.8136
ashi	-11.8143
▁denomination	-11.8144
iki	-11.8145
▁Thor	-11.8151
Connor	-11.8153
fur	-11.8153
▁1000	-11.8156
▁Simmons	-11.8156
▁disciplinary	-11.8156
▁forensic	-11.8157
▁tipped	-11.8157
▁Dunn	-11.8158
▁Byron	-11.816
▁Tracy	-11.8161
▁denial	-11.8163
AFP	-11.8163
▁Egyptian	-11.8163
▁Chile	-11.8165
▁Montgomery	-11.8168
▁Yesterday	-11.8168
▁Amar	-11.8169
▁thumb	-11.8179
▁RCMP	-11.8179
largest	-11.818
▁bomber	-11.818
▁Midwest	-11.818
▁Stage	-11.8187
▁LB	-11.819
▁indicating	-11.8191
▁disrespect	-11.8191
▁decorated	-11.8195
▁Winner	-11.8197
▁joked	-11.8199
▁Circle	-11.8203
▁Legislative	-11.8203
▁revenge	-11.8203
▁wrongdoing	-11.8204
▁Schw	-11.8206
▁Conf	-11.8211
▁spouse	-11.8216
▁alternate	-11.8216
▁Shiite	-11.8221
▁Voting	-11.8221
▁Donna	-11.8224
▁avenue	-11.8228
▁Webster	-11.8229
▁Buy	-11.823
▁Medi	-11.8232
▁complainant	-11.8238
▁literary	-11.824
▁Joey	-11.824
▁Hir	-11.8245
▁McCain	-11.8245
▁Rosa	-11.8249
▁Tun	-11.825
▁Glass	-11.8251
▁Belgian	-11.8252
▁reliance	-11.8252
▁relied	-11.8252
▁emotionally	-11.8252
▁proposition	-11.8253
▁flick	-11.8254
▁adhere	-11.8254
▁Mach	-11.8255
▁Goldman	-11.8255
▁Task	-11.8258
▁graduating	-11.8264
▁grief	-11.8264
vote	-11.8264
▁Merritt	-11.8264
▁Route	-11.8264
▁Barrett	-11.8265
▁Kai	-11.8266
▁suspend	-11.8269
▁bizarre	-11.8276
▁steadily	-11.8276
▁Junction	-11.8276
▁violate	-11.8276
▁Cow	-11.8279
▁Already	-11.8288
postmedia	-11.8288
▁Randy	-11.8289
shaped	-11.8289
▁Sharp	-11.829
jay	-11.829
▁stark	-11.8293
▁Isle	-11.8294
kowski	-11.8297
▁bucket	-11.8298
▁denying	-11.8298
clude	-11.8298
▁Lil	-11.8299
▁Father	-11.8299
▁Bengaluru	-11.83
▁Lim	-11.8301
END	-11.8301
▁Sharma	-11.8303
▁0800	-11.8303
etter	-11.8304
agger	-11.8306
▁McE	-11.8308
▁machinery	-11.8308
▁Bak	-11.8309
▁Trip	-11.8311
▁Aurora	-11.8312
▁vest	-11.8313
▁Rica	-11.8314
▁organize	-11.832
▁CAR	-11.8321
PEC	-11.8322
▁accent	-11.8325
▁ditch	-11.8329
▁Ole	-11.8334
▁Learning	-11.8335
▁Watt	-11.8336
▁Medicaid	-11.8336
ASS	-11.8337
▁watchdog	-11.8338
▁Burton	-11.8338
ICE	-11.8339
▁trump	-11.8344
▁Bran	-11.8346
▁commodity	-11.8349
▁threshold	-11.8349
▁stunned	-11.835
▁revealing	-11.835
▁Dodgers	-11.835
▁goat	-11.8352
▁treasure	-11.8352
▁dental	-11.8353
luck	-11.8355
▁Outside	-11.8356
▁Neg	-11.8359
▁troop	-11.836
▁believing	-11.8361
▁cooperate	-11.8361
▁Lodge	-11.8361
▁Fourth	-11.8363
affiliated	-11.8363
▁solicit	-11.8364
▁lens	-11.8365
▁Workers	-11.8368
▁scrum	-11.8368
Thank	-11.8371
▁Mercedes	-11.8372
writer	-11.8373
▁Course	-11.8373
▁punk	-11.8374
▁sting	-11.8378
▁functioning	-11.8379
▁mysterious	-11.8385
▁ritual	-11.8385
▁inherent	-11.8386
▁quoting	-11.8388
▁Resource	-11.8389
▁bacteria	-11.8392
▁manual	-11.8395
Build	-11.8401
▁fluid	-11.8403
racy	-11.8404
▁refurbish	-11.841
Ultimately	-11.841
▁rabbi	-11.841
▁cartoon	-11.841
▁Present	-11.841
▁expose	-11.8412
etta	-11.8416
▁orbit	-11.8416
▁laughed	-11.8419
▁Iranian	-11.8421
▁touches	-11.8422
▁Growth	-11.8422
▁Tesco	-11.8423
OB	-11.8423
▁migrant	-11.8424
▁Mich	-11.8426
▁lifelong	-11.8432
▁critically	-11.8433
▁echoed	-11.8434
▁Boeing	-11.8435
clusive	-11.8437
▁simultaneously	-11.8438
▁Better	-11.8443
▁Jump	-11.8444
▁clever	-11.8447
▁highlighting	-11.8448
▁honoured	-11.8452
AX	-11.8455
helm	-11.8456
▁Bible	-11.8456
▁McKe	-11.8457
▁flower	-11.8462
1-8	-11.8466
jun	-11.8467
hack	-11.847
▁wisdom	-11.8471
▁Bruins	-11.8472
▁directive	-11.8473
▁respectful	-11.8473
▁defensively	-11.8474
▁Marian	-11.8475
▁rust	-11.8475
▁Ng	-11.8477
served	-11.8479
leton	-11.8481
▁Julia	-11.8482
▁publishing	-11.8483
▁Crawley	-11.8484
▁relentless	-11.8484
▁sacred	-11.8484
▁urgency	-11.8484
▁broadband	-11.8484
▁Holmes	-11.8486
▁Analysis	-11.8496
▁kidnapping	-11.8496
▁discourage	-11.8496
filled	-11.8497
▁30,000	-11.8497
▁Ship	-11.85
▁gala	-11.8502
▁loop	-11.8503
▁Gross	-11.8503
▁hardship	-11.8504
▁Similarly	-11.8505
▁Martha	-11.8507
▁takeover	-11.8509
▁Strong	-11.8509
uja	-11.8511
▁1.3	-11.8513
▁prohibited	-11.8516
▁nationalist	-11.8518
▁performer	-11.852
▁Westminster	-11.8521
▁declaring	-11.8521
▁visibility	-11.8521
▁entrepreneur	-11.8528
▁petrol	-11.8529
▁earliest	-11.8533
▁diamond	-11.8533
▁navigate	-11.8533
▁universe	-11.8533
▁examining	-11.8533
▁gauge	-11.8533
▁sake	-11.8533
▁magnet	-11.8534
▁aerial	-11.8537
4-6	-11.8537
▁Prosecutor	-11.8539
▁copper	-11.8542
▁Flor	-11.8543
▁Hanson	-11.8543
▁likelihood	-11.8546
▁cheque	-11.8546
▁turf	-11.8546
▁Sutton	-11.8546
▁applies	-11.8546
▁instinct	-11.8549
▁Kap	-11.855
▁Suite	-11.8551
▁Independence	-11.8553
▁growers	-11.8554
▁Brom	-11.8555
▁aesthetic	-11.8558
▁disqualified	-11.8559
▁netted	-11.8562
▁smash	-11.8564
help	-11.8566
▁ethical	-11.8569
family	-11.857
▁populist	-11.857
▁Arctic	-11.857
▁Soldier	-11.8571
▁blessed	-11.8571
BR	-11.8571
▁Gregory	-11.8572
▁salmon	-11.8572
▁sheep	-11.8575
▁faithful	-11.8583
▁manslaughter	-11.8583
▁Chargers	-11.8583
▁diving	-11.8587
▁Freshman	-11.8587
▁Wu	-11.8595
Tech	-11.8595
▁Enforcement	-11.8595
▁smiling	-11.8595
▁8:30	-11.8599
jected	-11.8606
▁Immigration	-11.8608
▁ripped	-11.8609
▁Mata	-11.8609
▁insider	-11.861
lou	-11.8611
▁Strip	-11.8618
▁Meg	-11.862
▁compensate	-11.862
▁Alzheimer	-11.862
▁interval	-11.8624
▁undergoing	-11.8625
▁credible	-11.8633
significant	-11.8633
North	-11.8634
▁Grill	-11.8638
eiro	-11.8639
▁allegation	-11.8641
UK	-11.8642
▁tying	-11.8642
▁merchant	-11.8646
▁refuge	-11.8651
▁questionable	-11.8652
▁expired	-11.8656
▁zombie	-11.8658
▁poured	-11.8658
▁interfere	-11.8659
▁160	-11.8665
▁Hawk	-11.8668
▁flour	-11.8669
▁Alternative	-11.8671
▁Lancashire	-11.8671
▁Timothy	-11.8671
▁overwhelmed	-11.8671
▁Prescott	-11.8671
▁Nad	-11.8671
▁Borough	-11.8672
▁shrink	-11.8672
umba	-11.8673
▁troll	-11.8677
▁crumb	-11.868
▁greeted	-11.8681
▁cabin	-11.8684
Ghana	-11.8684
▁organizing	-11.8684
▁recruited	-11.8685
▁erect	-11.869
▁commentator	-11.8692
▁Assad	-11.8692
▁marry	-11.8694
▁leisure	-11.8696
vocation	-11.8696
▁amateur	-11.8696
[...]
